{
  "version": "1.0",
  "truncation": null,
  "padding": null,
  "added_tokens": [
    {
      "id": 0,
      "content": "[PAD]",
      "single_word": false,
      "lstrip": false,
      "rstrip": false,
      "normalized": false,
      "special": true
    },
    {
      "id": 1,
      "content": "[UNK]",
      "single_word": false,
      "lstrip": false,
      "rstrip": false,
      "normalized": false,
      "special": true
    },
    {
      "id": 2,
      "content": "[CLS]",
      "single_word": false,
      "lstrip": false,
      "rstrip": false,
      "normalized": false,
      "special": true
    },
    {
      "id": 3,
      "content": "[SEP]",
      "single_word": false,
      "lstrip": false,
      "rstrip": false,
      "normalized": false,
      "special": true
    },
    {
      "id": 4,
      "content": "[MASK]",
      "single_word": false,
      "lstrip": false,
      "rstrip": false,
      "normalized": false,
      "special": true
    }
  ],
  "normalizer": null,
  "pre_tokenizer": {
    "type": "ByteLevel",
    "add_prefix_space": false,
    "trim_offsets": true,
    "use_regex": true
  },
  "post_processor": {
    "type": "TemplateProcessing",
    "single": [
      {
        "Sequence": {
          "id": "A",
          "type_id": 0
        }
      }
    ],
    "pair": [
      {
        "Sequence": {
          "id": "A",
          "type_id": 0
        }
      },
      {
        "Sequence": {
          "id": "B",
          "type_id": 1
        }
      }
    ],
    "special_tokens": {}
  },
  "decoder": {
    "type": "ByteLevel",
    "add_prefix_space": true,
    "trim_offsets": true,
    "use_regex": true
  },
  "model": {
    "type": "BPE",
    "dropout": null,
    "unk_token": "[UNK]",
    "continuing_subword_prefix": null,
    "end_of_word_suffix": null,
    "fuse_unk": false,
    "byte_fallback": false,
    "ignore_merges": false,
    "vocab": {
      "[PAD]": 0,
      "[UNK]": 1,
      "[CLS]": 2,
      "[SEP]": 3,
      "[MASK]": 4,
      "!": 5,
      "\"": 6,
      "#": 7,
      "$": 8,
      "&": 9,
      "'": 10,
      "(": 11,
      ")": 12,
      "*": 13,
      ",": 14,
      "-": 15,
      ".": 16,
      "/": 17,
      "0": 18,
      "1": 19,
      "2": 20,
      "3": 21,
      "4": 22,
      "5": 23,
      "6": 24,
      "7": 25,
      "8": 26,
      "9": 27,
      ":": 28,
      ";": 29,
      "=": 30,
      "?": 31,
      "\\": 32,
      "_": 33,
      "a": 34,
      "b": 35,
      "c": 36,
      "d": 37,
      "e": 38,
      "f": 39,
      "g": 40,
      "h": 41,
      "i": 42,
      "j": 43,
      "k": 44,
      "l": 45,
      "m": 46,
      "n": 47,
      "o": 48,
      "p": 49,
      "q": 50,
      "r": 51,
      "s": 52,
      "t": 53,
      "u": 54,
      "v": 55,
      "w": 56,
      "x": 57,
      "y": 58,
      "z": 59,
      "Ġ": 60,
      "Ġt": 61,
      "Ġa": 62,
      "in": 63,
      "Ġs": 64,
      "er": 65,
      "Ġth": 66,
      "on": 67,
      "re": 68,
      "Ġthe": 69,
      "Ġc": 70,
      "or": 71,
      "es": 72,
      "an": 73,
      "at": 74,
      "Ġf": 75,
      "Ġp": 76,
      "Ġw": 77,
      "Ġo": 78,
      "Ġb": 79,
      "en": 80,
      "ing": 81,
      "it": 82,
      "Ġm": 83,
      "ar": 84,
      "ed": 85,
      "is": 86,
      "Ġin": 87,
      "al": 88,
      "Ġto": 89,
      "Ġd": 90,
      "Ġh": 91,
      "ro": 92,
      "ic": 93,
      "Ġof": 94,
      "le": 95,
      "Ġan": 96,
      "st": 97,
      "ou": 98,
      "ion": 99,
      "Ġn": 100,
      "Ġl": 101,
      "ay": 102,
      "Ġg": 103,
      "om": 104,
      "Ġre": 105,
      "ac": 106,
      "Ġe": 107,
      "ers": 108,
      "et": 109,
      "as": 110,
      "Ġand": 111,
      "ut": 112,
      "il": 113,
      "el": 114,
      "ent": 115,
      "Ġst": 116,
      "ec": 117,
      "un": 118,
      "Ġfor": 119,
      "ur": 120,
      "id": 121,
      "th": 122,
      "ol": 123,
      "Ġon": 124,
      "ow": 125,
      "ad": 126,
      "'s": 127,
      "Ġ-": 128,
      "us": 129,
      "ig": 130,
      "ap": 131,
      "im": 132,
      "Ġit": 133,
      "am": 134,
      "ir": 135,
      "Ġ(": 136,
      "ve": 137,
      "ly": 138,
      "oo": 139,
      "ew": 140,
      "ts": 141,
      "Ġr": 142,
      "Ġbe": 143,
      "Ġis": 144,
      "ation": 145,
      "ch": 146,
      "ter": 147,
      "Ġpro": 148,
      "Ġy": 149,
      "Ġthat": 150,
      "..": 151,
      "Ġv": 152,
      "Ġsp": 153,
      "Ġwh": 154,
      "os": 155,
      "Ġj": 156,
      "ear": 157,
      "ver": 158,
      "ce": 159,
      "est": 160,
      "ot": 161,
      "Ġsh": 162,
      "op": 163,
      "Ġcom": 164,
      "Ġex": 165,
      "ill": 166,
      "ke": 167,
      "Ġas": 168,
      "ip": 169,
      "Ġch": 170,
      "ld": 171,
      "Ġat": 172,
      "igh": 173,
      "ore": 174,
      "ace": 175,
      "day": 176,
      "up": 177,
      "Ġpl": 178,
      "ul": 179,
      "if": 180,
      "and": 181,
      "em": 182,
      "ith": 183,
      "Ġap": 184,
      "Ġby": 185,
      "Ġal": 186,
      "Ġwith": 187,
      "\\\\": 188,
      "um": 189,
      "ra": 190,
      "ust": 191,
      "ity": 192,
      "qu": 193,
      "Ġnew": 194,
      "ct": 195,
      "ies": 196,
      "Ġare": 197,
      "are": 198,
      "Ġcon": 199,
      "ine": 200,
      "ess": 201,
      "iv": 202,
      "Ġde": 203,
      "ag": 204,
      "ist": 205,
      "ud": 206,
      "ast": 207,
      "Ġun": 208,
      "ell": 209,
      "Ġcomp": 210,
      "oc": 211,
      "ate": 212,
      "rom": 213,
      "ack": 214,
      "ug": 215,
      "Ġwor": 216,
      "Ġexp": 217,
      "ft": 218,
      "Ġwe": 219,
      "Ġfrom": 220,
      "Ġoff": 221,
      "ould": 222,
      "og": 223,
      "oun": 224,
      "Ġk": 225,
      "res": 226,
      "Ġcl": 227,
      "ight": 228,
      "all": 229,
      "our": 230,
      "ak": 231,
      "ble": 232,
      "...": 233,
      "com": 234,
      "ect": 235,
      "ial": 236,
      "Ġle": 237,
      "Ġ--": 238,
      "Ġits": 239,
      "ia": 240,
      "ian": 241,
      "Ġsa": 242,
      "Ġha": 243,
      "Ġ1": 244,
      "se": 245,
      "Ġad": 246,
      "ind": 247,
      "ort": 248,
      "Ġmo": 249,
      "Ġus": 250,
      "ain": 251,
      "ere": 252,
      "ub": 253,
      "Ġen": 254,
      "ks": 255,
      "ry": 256,
      "Ġsc": 257,
      "Ġhe": 258,
      "Ġor": 259,
      "Ġthis": 260,
      "art": 261,
      "uters": 262,
      "Ġse": 263,
      "gle": 264,
      "Ġ2": 265,
      "ard": 266,
      "00": 267,
      "Ġte": 268,
      "Ġhas": 269,
      "Ġplan": 270,
      "oft": 271,
      "sp": 272,
      "Ġspace": 273,
      "iz": 274,
      "ive": 275,
      "ice": 276,
      "ong": 277,
      "Ġbut": 278,
      "Ġgoo": 279,
      "Ġhave": 280,
      "ail": 281,
      "der": 282,
      "mer": 283,
      "Ġwas": 284,
      "out": 285,
      "ment": 286,
      "pl": 287,
      "Ġab": 288,
      "Ġwill": 289,
      "Ġbl": 290,
      "Ġmar": 291,
      "Ġint": 292,
      "gt": 293,
      "ient": 294,
      "lt": 295,
      "ning": 296,
      "Ġro": 297,
      "Ġup": 298,
      "Ġqu": 299,
      "Ġac": 300,
      "Ġcan": 301,
      "Ġdis": 302,
      "Ġser": 303,
      "one": 304,
      "Ġne": 305,
      "ays": 306,
      "ome": 307,
      "ech": 308,
      "Ġinc": 309,
      "Ġall": 310,
      "ge": 311,
      "ket": 312,
      "Ġop": 313,
      "ure": 314,
      "end": 315,
      "Ġtr": 316,
      "Ġaf": 317,
      "Ġfir": 318,
      "Ġout": 319,
      "ists": 320,
      "Ġear": 321,
      "earch": 322,
      "Ġla": 323,
      "Ġco": 324,
      "any": 325,
      "Ġmore": 326,
      "ions": 327,
      "uct": 328,
      "Ġi": 329,
      "Ġtech": 330,
      "Ġover": 331,
      "av": 332,
      "Ġtim": 333,
      "Ġag": 334,
      "Ġinter": 335,
      "ros": 336,
      "ach": 337,
      "Ġsaid": 338,
      "ire": 339,
      "yst": 340,
      "Ġthey": 341,
      "Ġph": 342,
      "king": 343,
      "ue": 344,
      "Ġim": 345,
      "Ġsec": 346,
      "Ġpr": 347,
      "ens": 348,
      "ence": 349,
      "Ġdo": 350,
      "ich": 351,
      "str": 352,
      "Ġres": 353,
      "ide": 354,
      "own": 355,
      "Ġyou": 356,
      "ike": 357,
      "ms": 358,
      "vel": 359,
      "Ġcould": 360,
      "ans": 361,
      "Ġfl": 362,
      "Ġgo": 363,
      "Ġone": 364,
      "Ġyear": 365,
      "ds": 366,
      "reuters": 367,
      "ant": 368,
      "ite": 369,
      "Ġhis": 370,
      "Ġapp": 371,
      "'t": 372,
      "ep": 373,
      "ile": 374,
      "Ġ\\": 375,
      "Ġtheir": 376,
      "ame": 377,
      "ake": 378,
      "pic": 379,
      "uc": 380,
      "ated": 381,
      "row": 382,
      "the": 383,
      "olog": 384,
      "ations": 385,
      "Ġgoogle": 386,
      "Ġabout": 387,
      "for": 388,
      "ger": 389,
      "Ġ\"": 390,
      "ous": 391,
      "ass": 392,
      "ipo": 393,
      "Ġfirst": 394,
      "oy": 395,
      "port": 396,
      "ual": 397,
      "Ġsun": 398,
      "ors": 399,
      "Ġme": 400,
      "ther": 401,
      "Ġafter": 402,
      "ystem": 403,
      "lic": 404,
      "vi": 405,
      "iss": 406,
      "Ġind": 407,
      "urn": 408,
      "Ġscient": 409,
      "Ġmarket": 410,
      "Ġserv": 411,
      "ib": 412,
      "ware": 413,
      "Ġipo": 414,
      "Ġar": 415,
      "Ġthan": 416,
      "ory": 417,
      "Ġev": 418,
      "lo": 419,
      "tle": 420,
      "Ġfr": 421,
      "Ġbr": 422,
      "Ġnot": 423,
      "und": 424,
      "Ġshow": 425,
      "age": 426,
      "Ġcompany": 427,
      "Ġteam": 428,
      "con": 429,
      "hing": 430,
      "Ġ3": 431,
      "Ġtw": 432,
      "Ġcol": 433,
      "Ġpres": 434,
      "Ġmon": 435,
      "Ġwho": 436,
      "ose": 437,
      "Ġplay": 438,
      "ock": 439,
      "Ġtechn": 440,
      "ab": 441,
      "ek": 442,
      "ets": 443,
      "Ġstar": 444,
      "Ġsystem": 445,
      "Ġpe": 446,
      "icros": 447,
      "ign": 448,
      "Ġinto": 449,
      "66": 450,
      "ding": 451,
      "ef": 452,
      "gh": 453,
      "ting": 454,
      "Ġsoft": 455,
      "reat": 456,
      "Ġpre": 457,
      "Ġman": 458,
      "Ġmay": 459,
      "illion": 460,
      "Ġcont": 461,
      "Ġworld": 462,
      "mpic": 463,
      "Ġ#": 464,
      "Ġu": 465,
      "Ġam": 466,
      "ins": 467,
      "ork": 468,
      "Ġwould": 469,
      "Ġnet": 470,
      "ivers": 471,
      "Ġdevel": 472,
      "Ġtime": 473,
      "Ġsecur": 474,
      "icrosoft": 475,
      "Ġsoftware": 476,
      "Ġif": 477,
      "ren": 478,
      "ath": 479,
      "Ġno": 480,
      "Ġloo": 481,
      "act": 482,
      "ows": 483,
      "Ġyour": 484,
      "ult": 485,
      "ugh": 486,
      "Ġexper": 487,
      "Ġacc": 488,
      "Ġscientists": 489,
      "Ġdevelop": 490,
      "get": 491,
      "ty": 492,
      "Ġso": 493,
      "Ġsur": 494,
      "Ġsome": 495,
      "esday": 496,
      "anc": 497,
      "Ġpart": 498,
      "Ġbec": 499,
      "Ġdr": 500,
      "Ġdown": 501,
      "ough": 502,
      "Ġreg": 503,
      "Ġret": 504,
      "ase": 505,
      "Ġ\\$": 506,
      "new": 507,
      "ral": 508,
      "ys": 509,
      "Ġ...": 510,
      "Ġsays": 511,
      "ree": 512,
      "ance": 513,
      "Ġoly": 514,
      "Ġhigh": 515,
      "ased": 516,
      "Ġstr": 517,
      "oss": 518,
      "ound": 519,
      "ublic": 520,
      "Ġeng": 521,
      "Ġearth": 522,
      "ology": 523,
      ".\\\\": 524,
      "aus": 525,
      "cent": 526,
      "Ġ'": 527,
      "Ġke": 528,
      "Ġsl": 529,
      "Ġsal": 530,
      "Ġsup": 531,
      "Ġsearch": 532,
      "Ġcar": 533,
      "ition": 534,
      "ices": 535,
      "ash": 536,
      "Ġjo": 537,
      "Ġwork": 538,
      "Ġweb": 539,
      "Ġweek": 540,
      "ize": 541,
      "uction": 542,
      "Ġsecurity": 543,
      "ah": 544,
      "ber": 545,
      "goo": 546,
      "net": 547,
      "ost": 548,
      "ph": 549,
      "per": 550,
      "Ġx": 551,
      "Ġsat": 552,
      "Ġsay": 553,
      "Ġfe": 554,
      "Ġbus": 555,
      "enc": 556,
      "ise": 557,
      "Ġlike": 558,
      "asa": 559,
      "ents": 560,
      "Ġstre": 561,
      "urs": 562,
      "iday": 563,
      "Ġbeen": 564,
      "\\\\\"": 565,
      "Ġtwo": 566,
      "Ġolympic": 567,
      ";/": 568,
      "les": 569,
      "Ġcor": 570,
      "Ġcall": 571,
      "Ġfin": 572,
      "Ġwind": 573,
      "Ġmin": 574,
      "ish": 575,
      "omet": 576,
      "Ġreal": 577,
      "elp": 578,
      "Ġstud": 579,
      "old": 580,
      "Ġwhat": 581,
      "Ġwhich": 582,
      "Ġjust": 583,
      "ople": 584,
      "Ġlead": 585,
      "Ġ200": 586,
      "=\"": 587,
      "ff": 588,
      "line": 589,
      "less": 590,
      "ser": 591,
      "Ġset": 592,
      "ates": 593,
      "atch": 594,
      "Ġinv": 595,
      "Ġdes": 596,
      "rough": 597,
      "Ġlast": 598,
      "ational": 599,
      "Ġwhen": 600,
      "Ġunder": 601,
      "Ġfriday": 602,
      "Ġpeople": 603,
      "Ġengine": 604,
      "ause": 605,
      ".\"": 606,
      "az": 607,
      "Ġtro": 608,
      "ange": 609,
      "Ġper": 610,
      "Ġwere": 611,
      "ings": 612,
      "Ġmet": 613,
      "Ġmillion": 614,
      "als": 615,
      "Ġhad": 616,
      "lect": 617,
      "Ġget": 618,
      "Ġreport": 619,
      "uter": 620,
      "apan": 621,
      "amp": 622,
      "Ġoffer": 623,
      "Ġagain": 624,
      "form": 625,
      "Ġtechnology": 626,
      "co": 627,
      "mon": 628,
      "ted": 629,
      "uch": 630,
      "wh": 631,
      "xt": 632,
      "Ġaug": 633,
      "Ġamer": 634,
      "Ġthurs": 635,
      "Ġpublic": 636,
      "Ġmiss": 637,
      "alth": 638,
      "rop": 639,
      "ican": 640,
      "Ġnor": 641,
      "Ġnasa": 642,
      "Ġlat": 643,
      "Ġreuters": 644,
      "ely": 645,
      "oll": 646,
      "ade": 647,
      "ope": 648,
      "Ġcons": 649,
      "Ġthursday": 650,
      "be": 651,
      "ie": 652,
      "ned": 653,
      "ures": 654,
      "ves": 655,
      "Ġcr": 656,
      "ating": 657,
      "Ġfind": 658,
      "Ġwar": 659,
      "Ġother": 660,
      "its": 661,
      "ities": 662,
      "Ġday": 663,
      "Ġhow": 664,
      "ics": 665,
      "let": 666,
      "Ġann": 667,
      "Ġlog": 668,
      "Ġgu": 669,
      "app": 670,
      "Ġrun": 671,
      "Ġexpl": 672,
      "Ġopen": 673,
      "Ġservice": 674,
      "boy": 675,
      "he": 676,
      "led": 677,
      "tim": 678,
      "ved": 679,
      "we": 680,
      "Ġ4": 681,
      "Ġsol": 682,
      "Ġfound": 683,
      "Ġpar": 684,
      "Ġpers": 685,
      "Ġbu": 686,
      "ital": 687,
      "Ġmicrosoft": 688,
      "ary": 689,
      "roup": 690,
      "Ġlif": 691,
      "Ġgen": 692,
      "omers": 693,
      "Ġrele": 694,
      "ason": 695,
      "ild": 696,
      "Ġstart": 697,
      "Ġprod": 698,
      "Ġjapan": 699,
      "ular": 700,
      "aster": 701,
      "Ġunivers": 702,
      "Ġcomputer": 703,
      "akes": 704,
      "space": 705,
      "Ġneed": 706,
      "Ġresearch": 707,
      "view": 708,
      "eor": 709,
      "fore": 710,
      "ked": 711,
      "nesday": 712,
      "ying": 713,
      "Ġaut": 714,
      "Ġath": 715,
      "Ġauction": 716,
      "Ġsou": 717,
      "Ġthere": 718,
      "ont": 719,
      "ann": 720,
      "Ġwed": 721,
      "icial": 722,
      "Ġnow": 723,
      "Ġlong": 724,
      "Ġgrow": 725,
      "Ġonline": 726,
      "ood": 727,
      "Ġatt": 728,
      "Ġdef": 729,
      "istr": 730,
      "ount": 731,
      "Ġkn": 732,
      "aking": 733,
      "ubble": 734,
      "ireless": 735,
      "Ġeven": 736,
      "Ġnetw": 737,
      "google": 738,
      "Ġwindows": 739,
      "Ġwednesday": 740,
      ";&": 741,
      "ax": 742,
      "de": 743,
      "gr": 744,
      "ied": 745,
      "pt": 746,
      "ving": 747,
      "wn": 748,
      "Ġ&": 749,
      "Ġ\\\\": 750,
      "int": 751,
      "iness": 752,
      "Ġsm": 753,
      "Ġthrough": 754,
      "ond": 755,
      "ones": 756,
      "Ġcust": 757,
      "Ġwireless": 758,
      "Ġbro": 759,
      "Ġback": 760,
      "round": 761,
      "Ġlin": 762,
      "Ġgroup": 763,
      "uts": 764,
      "ution": 765,
      "enter": 766,
      "Ġbefore": 767,
      "Ġvi": 768,
      "Ġwhile": 769,
      "ands": 770,
      "Ġexpect": 771,
      "Ġofficial": 772,
      "Ġmost": 773,
      "Ġhealth": 774,
      "Ġnext": 775,
      "Ġsunday": 776,
      "Ġcorp": 777,
      "15": 778,
      "able": 779,
      "br": 780,
      "cl": 781,
      "ging": 782,
      "ged": 783,
      "gest": 784,
      "ject": 785,
      "ped": 786,
      "so": 787,
      "ven": 788,
      "way": 789,
      "Ġ6": 790,
      "Ġed": 791,
      "Ġav": 792,
      "Ġair": 793,
      "Ġsen": 794,
      "Ġcra": 795,
      "ording": 796,
      "Ġpop": 797,
      "Ġbest": 798,
      "Ġinf": 799,
      "alif": 800,
      "Ġhelp": 801,
      "ict": 802,
      "ical": 803,
      "Ġany": 804,
      "Ġnight": 805,
      "Ġlow": 806,
      "Ġgr": 807,
      "Ġgre": 808,
      "aces": 809,
      "Ġem": 810,
      "Ġecon": 811,
      "eles": 812,
      "Ġbeg": 813,
      "Ġspec": 814,
      "Ġshare": 815,
      "iant": 816,
      "Ġplans": 817,
      "Ġgood": 818,
      "Ġexperts": 819,
      "Ġbecause": 820,
      "news": 821,
      "ency": 822,
      "Ġfinal": 823,
      "Ġeconom": 824,
      "air": 825,
      "bor": 826,
      "bile": 827,
      "ded": 828,
      "ful": 829,
      "gal": 830,
      "ible": 831,
      "ious": 832,
      "list": 833,
      "man": 834,
      "ner": 835,
      "sh": 836,
      "ton": 837,
      "Ġact": 838,
      "Ġsan": 839,
      "Ġsomet": 840,
      "Ġpat": 841,
      "Ġmake": 842,
      "Ġtoo": 843,
      "Ġdv": 844,
      "Ġant": 845,
      "Ġnear": 846,
      "Ġref": 847,
      "Ġrep": 848,
      "ute": 849,
      "Ġstock": 850,
      "unch": 851,
      "vern": 852,
      "ress": 853,
      "Ġusing": 854,
      "Ġroc": 855,
      "Ġquot": 856,
      "Ġtimes": 857,
      "Ġpress": 858,
      "Ġmonth": 859,
      "Ġsales": 860,
      "Ġbusiness": 861,
      "Ġuniversity": 862,
      "bo": 863,
      "ced": 864,
      "ience": 865,
      "ling": 866,
      "min": 867,
      "miss": 868,
      "oid": 869,
      "vers": 870,
      "Ġ5": 871,
      "Ġastr": 872,
      "Ġaround": 873,
      "Ġsw": 874,
      "Ġsell": 875,
      "Ġsub": 876,
      "eral": 877,
      "Ġthese": 878,
      "Ġcell": 879,
      "ese": 880,
      "anies": 881,
      "atory": 882,
      "Ġfre": 883,
      "Ġfore": 884,
      "Ġface": 885,
      "Ġfour": 886,
      "Ġpo": 887,
      "Ġwin": 888,
      "Ġway": 889,
      "Ġob": 890,
      "Ġoil": 891,
      "Ġour": 892,
      "Ġban": 893,
      "Ġmy": 894,
      "Ġmed": 895,
      "Ġmag": 896,
      "Ġdec": 897,
      "ick": 898,
      "Ġlar": 899,
      "Ġelect": 900,
      "ects": 901,
      "uring": 902,
      "ident": 903,
      "uss": 904,
      "ames": 905,
      "Ġiss": 906,
      "Ġproble": 907,
      "Ġvir": 908,
      "Ġship": 909,
      "Ġshould": 910,
      "Ġshort": 911,
      "ific": 912,
      "Ġnews": 913,
      "ource": 914,
      "Ġ19": 915,
      "Ġadv": 916,
      "ments": 917,
      "plic": 918,
      "oney": 919,
      "Ġoper": 920,
      "ending": 921,
      "ava": 922,
      "Ġinterview": 923,
      "ross": 924,
      "Ġimp": 925,
      "Ġyears": 926,
      "Ġplayboy": 927,
      "Ġstudy": 928,
      "Ġmeteor": 929,
      "Ġagainst": 930,
      "Ġlatest": 931,
      "Ġlogger": 932,
      "Ġbroad": 933,
      "Ġastron": 934,
      "14": 935,
      "ave": 936,
      "cr": 937,
      "cess": 938,
      "ex": 939,
      "go": 940,
      "lud": 941,
      "mo": 942,
      "ues": 943,
      "ered": 944,
      "Ġthree": 945,
      "Ġcre": 946,
      "Ġcount": 947,
      "ester": 948,
      "ats": 949,
      "Ġfil": 950,
      "Ġpc": 951,
      "ense": 952,
      "ited": 953,
      "Ġinform": 954,
      "Ġtoday": 955,
      "Ġdat": 956,
      "Ġdel": 957,
      "Ġhum": 958,
      "ica": 959,
      "lear": 960,
      "Ġnational": 961,
      "Ġglo": 962,
      "Ġrec": 963,
      "Ġstate": 964,
      "urday": 965,
      "ims": 966,
      "Ġprof": 967,
      "Ġprot": 968,
      "Ġprov": 969,
      "Ġyork": 970,
      "Ġver": 971,
      "Ġvis": 972,
      "Ġchip": 973,
      "aren": 974,
      "ives": 975,
      "Ġcla": 976,
      "Ġhead": 977,
      "Ġsee": 978,
      "Ġinclud": 979,
      "Ġlaunch": 980,
      "Ġgovern": 981,
      "Ġapple": 982,
      "urned": 983,
      "hington": 984,
      "Ġaccording": 985,
      "Ġretail": 986,
      "Ġsuper": 987,
      "Ġxp": 988,
      "Ġsaturday": 989,
      "Ġoffering": 990,
      "Ġmission": 991,
      "head": 992,
      "Ġlife": 993,
      "Ġathens": 994,
      "Ġcustomers": 995,
      "Ġeconomy": 996,
      "font": 997,
      "hor": 998,
      "ler": 999,
      "ns": 1000,
      "to": 1001,
      "tp": 1002,
      "Ġir": 1003,
      "Ġenter": 1004,
      "Ġteles": 1005,
      "Ġsk": 1006,
      "Ġsize": 1007,
      "Ġcent": 1008,
      "Ġcap": 1009,
      "Ġcour": 1010,
      "Ġcreat": 1011,
      "ator": 1012,
      "Ġpol": 1013,
      "Ġpow": 1014,
      "Ġbo": 1015,
      "Ġmil": 1016,
      "Ġmany": 1017,
      "arter": 1018,
      "Ġdig": 1019,
      "Ġdrop": 1020,
      "Ġgame": 1021,
      "Ġread": 1022,
      "Ġreach": 1023,
      "Ġever": 1024,
      "ility": 1025,
      "Ġstat": 1026,
      "Ġform": 1027,
      "ird": 1028,
      "Ġra": 1029,
      "Ġran": 1030,
      "Ġyoun": 1031,
      "Ġjun": 1032,
      "umber": 1033,
      "ustral": 1034,
      "Ġconf": 1035,
      "udi": 1036,
      "acks": 1037,
      "Ġuse": 1038,
      "Ġwashington": 1039,
      "play": 1040,
      "nings": 1041,
      "Ġdisc": 1042,
      "Ġphone": 1043,
      "Ġindust": 1044,
      "Ġart": 1045,
      "6666": 1046,
      "Ġdrug": 1047,
      "Ġreported": 1048,
      "Ġannoun": 1049,
      "Ġnetwork": 1050,
      "Ġinformation": 1051,
      "Ġhuman": 1052,
      "Ġtelesc": 1053,
      "Ġdigital": 1054,
      "'re": 1055,
      "bl": 1056,
      "bs": 1057,
      "bit": 1058,
      "bay": 1059,
      "band": 1060,
      "bia": 1061,
      "cc": 1062,
      "eid": 1063,
      "ges": 1064,
      "hip": 1065,
      "io": 1066,
      "iet": 1067,
      "iel": 1068,
      "iqu": 1069,
      "ief": 1070,
      "microsoft": 1071,
      "par": 1072,
      "ron": 1073,
      "rican": 1074,
      "ux": 1075,
      "yn": 1076,
      "Ġ9": 1077,
      "Ġter": 1078,
      "Ġtest": 1079,
      "Ġahead": 1080,
      "Ġthose": 1081,
      "Ġcut": 1082,
      "Ġcity": 1083,
      "ord": 1084,
      "orn": 1085,
      "ants": 1086,
      "ater": 1087,
      "Ġposs": 1088,
      "Ġwell": 1089,
      "Ġbat": 1090,
      "Ġbet": 1091,
      "Ġbel": 1092,
      "Ġbig": 1093,
      "Ġboo": 1094,
      "ites": 1095,
      "Ġma": 1096,
      "Ġmus": 1097,
      "Ġmoney": 1098,
      "Ġins": 1099,
      "Ġinit": 1100,
      "Ġdem": 1101,
      "Ġhur": 1102,
      "Ġhubble": 1103,
      "elf": 1104,
      "els": 1105,
      "Ġstore": 1106,
      "ecut": 1107,
      "Ġbeing": 1108,
      "Ġprop": 1109,
      "Ġproject": 1110,
      "Ġvo": 1111,
      "Ġvar": 1112,
      "Ġvide": 1113,
      "Ġjava": 1114,
      "Ġass": 1115,
      "Ġalso": 1116,
      "uments": 1117,
      "ival": 1118,
      "Ġcompanies": 1119,
      "ocks": 1120,
      "Ġclass": 1121,
      "Ġmoon": 1122,
      "Ġmobile": 1123,
      "000": 1124,
      "Ġplanet": 1125,
      "Ġblack": 1126,
      "Ġdisp": 1127,
      "Ġincre": 1128,
      "Ġcost": 1129,
      "Ġcode": 1130,
      "Ġinternet": 1131,
      "Ġprices": 1132,
      "Ġdoes": 1133,
      "Ġcolum": 1134,
      "Ġsystems": 1135,
      "Ġkeep": 1136,
      "Ġ2004": 1137,
      ".\"\\\\\"": 1138,
      "Ġpercent": 1139,
      "Ġresearchers": 1140,
      "istration": 1141,
      "Ġknow": 1142,
      "Ġcraig": 1143,
      "Ġdvd": 1144,
      "Ġgovernment": 1145,
      "Ġcentral": 1146,
      "Ġyoung": 1147,
      "Ġtelescope": 1148,
      "'m": 1149,
      "36": 1150,
      "aw": 1151,
      "auts": 1152,
      "cast": 1153,
      "ey": 1154,
      "ix": 1155,
      "ier": 1156,
      "mit": 1157,
      "no": 1158,
      "pe": 1159,
      "pr": 1160,
      "ping": 1161,
      "uesday": 1162,
      "ward": 1163,
      "year": 1164,
      "Ġtra": 1165,
      "Ġtuesday": 1166,
      "Ġaustral": 1167,
      "Ġsus": 1168,
      "Ġsim": 1169,
      "erg": 1170,
      "ons": 1171,
      "read": 1172,
      "Ġthem": 1173,
      "Ġcur": 1174,
      "orts": 1175,
      "Ġfam": 1176,
      "Ġple": 1177,
      "Ġpast": 1178,
      "Ġpost": 1179,
      "Ġwr": 1180,
      "Ġown": 1181,
      "Ġbar": 1182,
      "Ġbid": 1183,
      "ittle": 1184,
      "Ġmass": 1185,
      "Ġtop": 1186,
      "Ġdon": 1187,
      "Ġdif": 1188,
      "Ġdays": 1189,
      "Ġhear": 1190,
      "Ġhere": 1191,
      "Ġhome": 1192,
      "Ġnumber": 1193,
      "Ġlun": 1194,
      "Ġless": 1195,
      "Ġlist": 1196,
      "Ġlittle": 1197,
      "Ġgl": 1198,
      "Ġred": 1199,
      "Ġey": 1200,
      "ases": 1201,
      "Ġstill": 1202,
      "olution": 1203,
      "Ġrace": 1204,
      "Ġruss": 1205,
      "Ġprobe": 1206,
      "Ġvers": 1207,
      "Ġwhy": 1208,
      "Ġshar": 1209,
      "Ġapplic": 1210,
      "Ġwithout": 1211,
      "raft": 1212,
      "ages": 1213,
      "Ġclose": 1214,
      "aker": 1215,
      "Ġadd": 1216,
      "Ġ25": 1217,
      "ized": 1218,
      "ploy": 1219,
      "Ġblog": 1220,
      "Ġacross": 1221,
      "Ġfirm": 1222,
      "Ġlaw": 1223,
      "Ġagency": 1224,
      "Ġbrit": 1225,
      "Ġshower": 1226,
      "Ġpresident": 1227,
      "Ġlooking": 1228,
      "Ġ...\\\\": 1229,
      "Ġstrike": 1230,
      "Ġkey": 1231,
      "Ġslow": 1232,
      "serv": 1233,
      "azine": 1234,
      "Ġnorth": 1235,
      "time": 1236,
      "Ġperseid": 1237,
      "Ġauthor": 1238,
      "Ġsouth": 1239,
      "Ġofficials": 1240,
      "Ġsomething": 1241,
      "Ġmagazine": 1242,
      "Ġastronauts": 1243,
      "Ġglob": 1244,
      "Ġjune": 1245,
      "Ġindustry": 1246,
      "Ġinitial": 1247,
      "Ġdiff": 1248,
      "af": 1249,
      "aq": 1250,
      "based": 1251,
      "cer": 1252,
      "dan": 1253,
      "eed": 1254,
      "fl": 1255,
      "gress": 1256,
      "her": 1257,
      "ik": 1258,
      "ium": 1259,
      "land": 1260,
      "mail": 1261,
      "ners": 1262,
      "national": 1263,
      "ool": 1264,
      "ray": 1265,
      "slist": 1266,
      "tain": 1267,
      "ule": 1268,
      "Ġtit": 1269,
      "Ġtal": 1270,
      "Ġtry": 1271,
      "ina": 1272,
      "ink": 1273,
      "Ġsu": 1274,
      "Ġsy": 1275,
      "Ġsug": 1276,
      "Ġsame": 1277,
      "erry": 1278,
      "Ġce": 1279,
      "Ġcalif": 1280,
      "Ġfun": 1281,
      "Ġfree": 1282,
      "Ġpen": 1283,
      "Ġpay": 1284,
      "Ġput": 1285,
      "Ġpur": 1286,
      "Ġpack": 1287,
      "Ġwant": 1288,
      "Ġoce": 1289,
      "Ġbre": 1290,
      "Ġben": 1291,
      "Ġmem": 1292,
      "Ġmust": 1293,
      "Ġmuch": 1294,
      "ism": 1295,
      "ister": 1296,
      "Ġinst": 1297,
      "Ġinstr": 1298,
      "Ġhope": 1299,
      "rod": 1300,
      "icle": 1301,
      "icans": 1302,
      "ional": 1303,
      "Ġlo": 1304,
      "Ġlos": 1305,
      "Ġgiant": 1306,
      "Ġgames": 1307,
      "Ġreason": 1308,
      "acec": 1309,
      "Ġemer": 1310,
      "asing": 1311,
      "Ġstor": 1312,
      "Ġstation": 1313,
      "ids": 1314,
      "Ġonly": 1315,
      "imate": 1316,
      "ook": 1317,
      "Ġspacec": 1318,
      "Ġwhere": 1319,
      "ull": 1320,
      "Ġdeep": 1321,
      "oci": 1322,
      "ocus": 1323,
      "Ġleft": 1324,
      "ians": 1325,
      "Ġsaudi": 1326,
      "Ġused": 1327,
      "Ġscience": 1328,
      "Ġ20": 1329,
      "Ġimage": 1330,
      "Ġsecond": 1331,
      "Ġappro": 1332,
      "load": 1333,
      "Ġcolor": 1334,
      "Ġstars": 1335,
      "rent": 1336,
      "Ġlooks": 1337,
      "Ġbecome": 1338,
      "Ġdownload": 1339,
      "Ġjoh": 1340,
      "ahoo": 1341,
      "Ġbush": 1342,
      "Ġstream": 1343,
      "Ġreally": 1344,
      "Ġinvest": 1345,
      "cover": 1346,
      "Ġsolar": 1347,
      "Ġrelease": 1348,
      "Ġlinux": 1349,
      "Ġhealthday": 1350,
      "151": 1351,
      "Ġavoid": 1352,
      "Ġrocket": 1353,
      "Ġlargest": 1354,
      "Ġissue": 1355,
      "esterday": 1356,
      "Ġdata": 1357,
      "Ġrecord": 1358,
      "Ġvideo": 1359,
      "Ġcraigslist": 1360,
      "Ġsusp": 1361,
      "Ġocean": 1362,
      "Ġspacecraft": 1363,
      ".'": 1364,
      ".\\": 1365,
      "30": 1366,
      "aur": 1367,
      "bot": 1368,
      "cient": 1369,
      "des": 1370,
      "ee": 1371,
      "ior": 1372,
      "ming": 1373,
      "pite": 1374,
      "ries": 1375,
      "son": 1376,
      "uit": 1377,
      "urop": 1378,
      "Ġz": 1379,
      "Ġtakes": 1380,
      "Ġara": 1381,
      "ini": 1382,
      "ines": 1383,
      "ining": 1384,
      "Ġsqu": 1385,
      "Ġsend": 1386,
      "Ġsite": 1387,
      "Ġsuc": 1388,
      "Ġsign": 1389,
      "Ġsuch": 1390,
      "Ġthough": 1391,
      "Ġthen": 1392,
      "Ġcare": 1393,
      "ests": 1394,
      "Ġfew": 1395,
      "Ġpot": 1396,
      "Ġwis": 1397,
      "Ġbra": 1398,
      "Ġbug": 1399,
      "Ġbillion": 1400,
      "iting": 1401,
      "Ġmight": 1402,
      "Ġmich": 1403,
      "isco": 1404,
      "Ġdest": 1405,
      "Ġduring": 1406,
      "Ġhp": 1407,
      "Ġhot": 1408,
      "Ġhand": 1409,
      "Ġhist": 1410,
      "Ġanal": 1411,
      "sts": 1412,
      "ster": 1413,
      "ouse": 1414,
      "Ġlic": 1415,
      "Ġloc": 1416,
      "Ġlight": 1417,
      "Ġlik": 1418,
      "Ġrel": 1419,
      "Ġrex": 1420,
      "Ġresp": 1421,
      "Ġrecent": 1422,
      "acy": 1423,
      "Ġel": 1424,
      "ential": 1425,
      "Ġstake": 1426,
      "Ġformer": 1427,
      "idence": 1428,
      "olph": 1429,
      "owed": 1430,
      "imp": 1431,
      "Ġris": 1432,
      "Ġright": 1433,
      "Ġbeh": 1434,
      "chool": 1435,
      "Ġyahoo": 1436,
      "Ġyesterday": 1437,
      "Ġspam": 1438,
      "Ġspot": 1439,
      "Ġjud": 1440,
      "cept": 1441,
      "esty": 1442,
      "Ġext": 1443,
      "Ġexecut": 1444,
      "Ġchar": 1445,
      "Ġchange": 1446,
      "Ġchild": 1447,
      "andard": 1448,
      "ement": 1449,
      "ums": 1450,
      "ummer": 1451,
      "Ġunt": 1452,
      "Ġworking": 1453,
      "Ġexplo": 1454,
      "Ġoffers": 1455,
      "Ġkore": 1456,
      "Ġclou": 1457,
      "comp": 1458,
      "Ġlear": 1459,
      "Ġ12": 1460,
      "Ġadmin": 1461,
      "Ġmod": 1462,
      "Ġusers": 1463,
      "Ġenough": 1464,
      "Ġplanets": 1465,
      "Ġquest": 1466,
      "Ġtrans": 1467,
      "Ġib": 1468,
      "aves": 1469,
      "Ġinternational": 1470,
      "Ġphones": 1471,
      "Ġpriv": 1472,
      "strong": 1473,
      "ually": 1474,
      "thern": 1475,
      "Ġmarkets": 1476,
      "Ġmonday": 1477,
      "Ġmanned": 1478,
      "Ġuk": 1479,
      "Ġamong": 1480,
      "Ġaccess": 1481,
      "ances": 1482,
      "Ġregion": 1483,
      "Ġolympics": 1484,
      "Ġcalls": 1485,
      "Ġsettle": 1486,
      "Ġdespite": 1487,
      "what": 1488,
      "Ġaugust": 1489,
      "Ġamerican": 1490,
      "Ġconsum": 1491,
      "Ġrunning": 1492,
      "gram": 1493,
      "Ġviol": 1494,
      "Ġexpected": 1495,
      "Ġpopular": 1496,
      "Ġshares": 1497,
      "Ġnearly": 1498,
      "board": 1499,
      "mission": 1500,
      "Ġelectron": 1501,
      "Ġproblems": 1502,
      "Ġcountry": 1503,
      "Ġprotect": 1504,
      "Ġcourse": 1505,
      "Ġpower": 1506,
      "Ġarticle": 1507,
      "Ġannounced": 1508,
      "Ġmusic": 1509,
      "Ġhurrican": 1510,
      "Ġversion": 1511,
      "Ġdiffer": 1512,
      "urope": 1513,
      "Ġlikely": 1514,
      "\"&": 1515,
      "ball": 1516,
      "col": 1517,
      "cap": 1518,
      "down": 1519,
      "fi": 1520,
      "gian": 1521,
      "hel": 1522,
      "iver": 1523,
      "jor": 1524,
      "ky": 1525,
      "kins": 1526,
      "most": 1527,
      "ness": 1528,
      "nect": 1529,
      "po": 1530,
      "ply": 1531,
      "ror": 1532,
      "run": 1533,
      "set": 1534,
      "tis": 1535,
      "ters": 1536,
      "uel": 1537,
      "vet": 1538,
      "Ġ7": 1539,
      "Ġ\\\\\"": 1540,
      "Ġty": 1541,
      "Ġtem": 1542,
      "Ġtake": 1543,
      "inos": 1544,
      "Ġsin": 1545,
      "Ġsource": 1546,
      "Ġthing": 1547,
      "Ġthird": 1548,
      "Ġthink": 1549,
      "Ġcam": 1550,
      "Ġcause": 1551,
      "Ġclear": 1552,
      "oring": 1553,
      "oration": 1554,
      "ature": 1555,
      "ators": 1556,
      "Ġfar": 1557,
      "Ġfed": 1558,
      "Ġfall": 1559,
      "Ġfive": 1560,
      "Ġfoll": 1561,
      "Ġfull": 1562,
      "Ġpal": 1563,
      "Ġpoll": 1564,
      "Ġwon": 1565,
      "Ġwal": 1566,
      "Ġwild": 1567,
      "Ġbit": 1568,
      "Ġbal": 1569,
      "Ġbud": 1570,
      "Ġmot": 1571,
      "Ġmain": 1572,
      "Ġmade": 1573,
      "ision": 1574,
      "ale": 1575,
      "Ġtool": 1576,
      "Ġdar": 1577,
      "Ġdet": 1578,
      "Ġdell": 1579,
      "Ġher": 1580,
      "Ġhit": 1581,
      "Ġhal": 1582,
      "Ġhun": 1583,
      "Ġhack": 1584,
      "Ġhard": 1585,
      "icip": 1586,
      "ouble": 1587,
      "Ġlim": 1588,
      "Ġlib": 1589,
      "Ġlyn": 1590,
      "Ġgap": 1591,
      "Ġgold": 1592,
      "Ġreve": 1593,
      "aced": 1594,
      "Ġeff": 1595,
      "Ġeurope": 1596,
      "uture": 1597,
      "ilty": 1598,
      "ental": 1599,
      "Ġstandard": 1600,
      "Ġforce": 1601,
      "ider": 1602,
      "though": 1603,
      "aper": 1604,
      "Ġrad": 1605,
      "Ġrival": 1606,
      "Ġisn": 1607,
      "Ġprom": 1608,
      "Ġprosp": 1609,
      "Ġprogram": 1610,
      "Ġvac": 1611,
      "Ġshut": 1612,
      "ops": 1613,
      "Ġcommon": 1614,
      "Ġchair": 1615,
      "Ġchief": 1616,
      "Ġplace": 1617,
      "ults": 1618,
      "andra": 1619,
      "Ġconcer": 1620,
      "iven": 1621,
      "iving": 1622,
      "Ġdeb": 1623,
      "Ġdev": 1624,
      "Ġdead": 1625,
      "Ġunited": 1626,
      "Ġcompet": 1627,
      "ocr": 1628,
      "Ġkind": 1629,
      "Ġkerry": 1630,
      "Ġclon": 1631,
      "Ġclos": 1632,
      "Ġclimate": 1633,
      "aken": 1634,
      "Ġlegal": 1635,
      "Ġhaving": 1636,
      "Ġ10": 1637,
      "ains": 1638,
      "Ġorder": 1639,
      "Ġorbit": 1640,
      "Ġseason": 1641,
      "Ġtex": 1642,
      "Ġteen": 1643,
      "Ġplanning": 1644,
      "ization": 1645,
      "ails": 1646,
      "Ġblock": 1647,
      "Ġquarter": 1648,
      "Ġnever": 1649,
      "Ġtrack": 1650,
      "Ġearly": 1651,
      "Ġearnings": 1652,
      "ired": 1653,
      "Ġprize": 1654,
      "Ġflo": 1655,
      "pical": 1656,
      "vious": 1657,
      "Ġtechniqu": 1658,
      "Ġstarts": 1659,
      "Ġcontr": 1660,
      "Ġcontin": 1661,
      "Ġamaz": 1662,
      "ather": 1663,
      "Ġdevelopers": 1664,
      "Ġsurren": 1665,
      "Ġreturn": 1666,
      "Ġfeet": 1667,
      "Ġcalled": 1668,
      "elps": 1669,
      ".\"\\\\": 1670,
      "Ġamericans": 1671,
      "Ġannual": 1672,
      "Ġguilty": 1673,
      "Ġperson": 1674,
      "Ġreleased": 1675,
      "Ġproduct": 1676,
      "Ġgrowth": 1677,
      "Ġsmall": 1678,
      "Ġview": 1679,
      "Ġavail": 1680,
      "Ġgrant": 1681,
      "Ġemb": 1682,
      "Ġspecial": 1683,
      "Ġmonths": 1684,
      "Ġobserv": 1685,
      "Ġoperating": 1686,
      "Ġclaims": 1687,
      "Ġiraq": 1688,
      "Ġevery": 1689,
      "Ġmajor": 1690,
      "Ġassoci": 1691,
      "Ġplead": 1692,
      "Ġbritish": 1693,
      "Ġglobal": 1694,
      "Ġinstruments": 1695,
      "roduc": 1696,
      "Ġjohn": 1697,
      "Ġsuccess": 1698,
      "Ġuntil": 1699,
      "Ġibm": 1700,
      "Ġdifferent": 1701,
      "Ġfederal": 1702,
      "\"\\": 1703,
      ",\"": 1704,
      ":\\\\": 1705,
      ";-": 1706,
      "?\"": 1707,
      "aign": 1708,
      "bi": 1709,
      "by": 1710,
      "cos": 1711,
      "dell": 1712,
      "date": 1713,
      "eer": 1714,
      "ees": 1715,
      "ebay": 1716,
      "gin": 1717,
      "gan": 1718,
      "gen": 1719,
      "iers": 1720,
      "ls": 1721,
      "lif": 1722,
      "mun": 1723,
      "mad": 1724,
      "mos": 1725,
      "of": 1726,
      "oes": 1727,
      "other": 1728,
      "pro": 1729,
      "zill": 1730,
      "Ġest": 1731,
      "Ġide": 1732,
      "Ġtar": 1733,
      "Ġturn": 1734,
      "Ġtreat": 1735,
      "Ġturned": 1736,
      "Ġaway": 1737,
      "inf": 1738,
      "ined": 1739,
      "Ġsn": 1740,
      "Ġsing": 1741,
      "Ġsem": 1742,
      "Ġsud": 1743,
      "Ġsans": 1744,
      "Ġcir": 1745,
      "Ġcore": 1746,
      "Ġcrow": 1747,
      "orid": 1748,
      "ane": 1749,
      "atic": 1750,
      "aters": 1751,
      "ately": 1752,
      "atures": 1753,
      "Ġfell": 1754,
      "Ġfight": 1755,
      "Ġfail": 1756,
      "Ġfire": 1757,
      "Ġfaster": 1758,
      "Ġfood": 1759,
      "Ġfuture": 1760,
      "Ġpin": 1761,
      "Ġpos": 1762,
      "Ġparen": 1763,
      "Ġwi": 1764,
      "Ġwall": 1765,
      "Ġwatch": 1766,
      "Ġwater": 1767,
      "Ġold": 1768,
      "Ġbas": 1769,
      "Ġbir": 1770,
      "itch": 1771,
      "Ġmat": 1772,
      "Ġmal": 1773,
      "Ġmill": 1774,
      "Ġmess": 1775,
      "Ġmist": 1776,
      "arial": 1777,
      "ison": 1778,
      "ised": 1779,
      "Ġdied": 1780,
      "Ġdolph": 1781,
      "Ġhar": 1782,
      "Ġhapp": 1783,
      "rove": 1784,
      "icated": 1785,
      "ley": 1786,
      "Ġlate": 1787,
      "Ġgets": 1788,
      "Ġgreat": 1789,
      "Ġrequ": 1790,
      "acing": 1791,
      "acle": 1792,
      "acific": 1793,
      "Ġequ": 1794,
      "ask": 1795,
      "ily": 1796,
      "ille": 1797,
      "Ġste": 1798,
      "Ġstep": 1799,
      "Ġstates": 1800,
      "Ġforums": 1801,
      "urt": 1802,
      "ada": 1803,
      "iron": 1804,
      "vey": 1805,
      "oot": 1806,
      "Ġrap": 1807,
      "Ġrare": 1808,
      "Ġrule": 1809,
      "Ġbeach": 1810,
      "Ġproper": 1811,
      "osp": 1812,
      "veral": 1813,
      "verdan": 1814,
      "ote": 1815,
      "keys": 1816,
      "Ġasia": 1817,
      "Ġche": 1818,
      "Ġchan": 1819,
      "Ġchec": 1820,
      "Ġchamp": 1821,
      "Ġchann": 1822,
      "ights": 1823,
      "Ġalthough": 1824,
      "Ġworks": 1825,
      "Ġkill": 1826,
      "come": 1827,
      "Ġmovi": 1828,
      "Ġorgan": 1829,
      "Ġseat": 1830,
      "Ġseen": 1831,
      "Ġseveral": 1832,
      "Ġmars": 1833,
      "Ġrobot": 1834,
      "Ġqualif": 1835,
      "Ġquick": 1836,
      "Ġdisplay": 1837,
      "Ġserif": 1838,
      "ended": 1839,
      "Ġtrade": 1840,
      "Ġoutl": 1841,
      "Ġlab": 1842,
      "Ġlabor": 1843,
      "ucture": 1844,
      "Ġinterest": 1845,
      "Ġprice": 1846,
      "Ġflorid": 1847,
      "Ġappear": 1848,
      "Ġapparen": 1849,
      "ystems": 1850,
      "Ġservices": 1851,
      "ibly": 1852,
      "Ġfranc": 1853,
      "cons": 1854,
      "Ġplayer": 1855,
      "Ġprevious": 1856,
      "Ġmanag": 1857,
      "Ġcontro": 1858,
      "Ġlook": 1859,
      "Ġdeveloping": 1860,
      "Ġdevelopment": 1861,
      "Ġsoon": 1862,
      "Ġsurvey": 1863,
      "anced": 1864,
      "Ġpartners": 1865,
      "Ġhighly": 1866,
      "Ġsupport": 1867,
      "Ġcargo": 1868,
      "Ġjobs": 1869,
      "phone": 1870,
      "ences": 1871,
      "Ġminor": 1872,
      "Ġleading": 1873,
      "=\"#": 1874,
      "=\"-": 1875,
      "Ġinvent": 1876,
      "Ġdesign": 1877,
      "Ġunderst": 1878,
      "ampaign": 1879,
      "which": 1880,
      "Ġamerica": 1881,
      "Ġruns": 1882,
      "ween": 1883,
      "Ġjapanese": 1884,
      "Ġneeds": 1885,
      "Ġgrowing": 1886,
      "Ġnetwor": 1887,
      "Ġinfl": 1888,
      "Ġinfra": 1889,
      "Ġemploy": 1890,
      "Ġbegan": 1891,
      "Ġbegins": 1892,
      "Ġtook": 1893,
      "Ġproblem": 1894,
      "Ġvirus": 1895,
      "Ġvirgin": 1896,
      "crib": 1897,
      "Ġprovide": 1898,
      "Ġvery": 1899,
      "Ġvisual": 1900,
      "Ġincluding": 1901,
      "Ġpolit": 1902,
      "Ġraise": 1903,
      "666666": 1904,
      "ield": 1905,
      "Ġ90": 1906,
      "Ġterror": 1907,
      "ornia": 1908,
      "Ġpossible": 1909,
      "Ġbetween": 1910,
      "Ġdemocr": 1911,
      "Ġpropos": 1912,
      "Ġvoip": 1913,
      "ergy": 1914,
      "Ġcurrent": 1915,
      "Ġheart": 1916,
      "Ġlunar": 1917,
      "Ġrussian": 1918,
      "Ġlaws": 1919,
      "Ġstreaming": 1920,
      "Ġarabia": 1921,
      "Ġsquare": 1922,
      "Ġthought": 1923,
      "Ġdestin": 1924,
      "Ġbehind": 1925,
      "estyle": 1926,
      "Ġchildren": 1927,
      "Ġkorea": 1928,
      "Ġhurricane": 1929,
      "helvet": 1930,
      "nections": 1931,
      "Ġmotion": 1932,
      "Ġliber": 1933,
      "Ġlynn": 1934,
      "Ġtexas": 1935,
      "Ġpersonal": 1936,
      "Ġavailable": 1937,
      "Ġobservatory": 1938,
      "zilla": 1939,
      "Ġtarget": 1940,
      "Ġsudan": 1941,
      "Ġparents": 1942,
      "Ġmillions": 1943,
      "verdana": 1944,
      "Ġlaboratory": 1945,
      "Ġflorida": 1946,
      "Ġapparent": 1947,
      "helvetica": 1948,
      "!\\\\": 1949,
      "'ve": 1950,
      "),": 1951,
      ".&": 1952,
      "10": 1953,
      "ael": 1954,
      "bu": 1955,
      "cine": 1956,
      "cial": 1957,
      "den": 1958,
      "ders": 1959,
      "ead": 1960,
      "eks": 1961,
      "fur": 1962,
      "fall": 1963,
      "fect": 1964,
      "hp": 1965,
      "ht": 1966,
      "here": 1967,
      "jects": 1968,
      "kn": 1969,
      "loc": 1970,
      "light": 1971,
      "lant": 1972,
      "ma": 1973,
      "me": 1974,
      "mp": 1975,
      "my": 1976,
      "med": 1977,
      "maker": 1978,
      "ny": 1979,
      "nes": 1980,
      "nan": 1981,
      "name": 1982,
      "ok": 1983,
      "ole": 1984,
      "off": 1985,
      "odes": 1986,
      "pow": 1987,
      "pack": 1988,
      "sa": 1989,
      "some": 1990,
      "site": 1991,
      "te": 1992,
      "tal": 1993,
      "tra": 1994,
      "tech": 1995,
      "uf": 1996,
      "uce": 1997,
      "uke": 1998,
      "vent": 1999,
      "viron": 2000,
      "wor": 2001,
      "work": 2002,
      "xic": 2003,
      "ympic": 2004,
      "ype": 2005,
      "Ġ=": 2006,
      "Ġult": 2007,
      "Ġtie": 2008,
      "Ġtaken": 2009,
      "Ġaer": 2010,
      "Ġaid": 2011,
      "Ġaol": 2012,
      "inc": 2013,
      "Ġsap": 2014,
      "Ġsummer": 2015,
      "Ġthous": 2016,
      "Ġthreat": 2017,
      "ony": 2018,
      "Ġcy": 2019,
      "Ġcer": 2020,
      "Ġcase": 2021,
      "Ġcampaign": 2022,
      "ang": 2023,
      "ative": 2024,
      "Ġfur": 2025,
      "Ġfact": 2026,
      "Ġfaces": 2027,
      "Ġfuel": 2028,
      "Ġfoot": 2029,
      "Ġpion": 2030,
      "Ġpacific": 2031,
      "Ġwaves": 2032,
      "Ġwaters": 2033,
      "Ġos": 2034,
      "Ġbun": 2035,
      "Ġbad": 2036,
      "ening": 2037,
      "eney": 2038,
      "itions": 2039,
      "Ġmach": 2040,
      "Ġmyst": 2041,
      "Ġmaking": 2042,
      "Ġmaker": 2043,
      "ari": 2044,
      "aria": 2045,
      "edicated": 2046,
      "aled": 2047,
      "ality": 2048,
      "Ġtour": 2049,
      "Ġtoget": 2050,
      "Ġdust": 2051,
      "Ġdire": 2052,
      "Ġdedicated": 2053,
      "Ġhew": 2054,
      "Ġhop": 2055,
      "Ġhits": 2056,
      "icem": 2057,
      "Ġanim": 2058,
      "Ġname": 2059,
      "Ġnuc": 2060,
      "Ġlad": 2061,
      "Ġlot": 2062,
      "Ġloss": 2063,
      "Ġgas": 2064,
      "omen": 2065,
      "Ġeat": 2066,
      "Ġele": 2067,
      "Ġebay": 2068,
      "Ġecos": 2069,
      "ils": 2070,
      "ilding": 2071,
      "Ġstop": 2072,
      "Ġstem": 2073,
      "ece": 2074,
      "ury": 2075,
      "thin": 2076,
      "thing": 2077,
      "olympic": 2078,
      "Ġonce": 2079,
      "owing": 2080,
      "ush": 2081,
      "igin": 2082,
      "apt": 2083,
      "ime": 2084,
      "imental": 2085,
      "Ġring": 2086,
      "Ġrates": 2087,
      "Ġrange": 2088,
      "Ġbea": 2089,
      "Ġbeat": 2090,
      "Ġisra": 2091,
      "ched": 2092,
      "Ġprojects": 2093,
      "Ġspending": 2094,
      "Ġsports": 2095,
      "Ġjose": 2096,
      "vertis": 2097,
      "Ġshot": 2098,
      "Ġcommer": 2099,
      "Ġcommission": 2100,
      "Ġcommun": 2101,
      "Ġchall": 2102,
      "Ġchandra": 2103,
      "ighter": 2104,
      "ulation": 2105,
      "ified": 2106,
      "Ġalong": 2107,
      "uster": 2108,
      "ction": 2109,
      "Ġcond": 2110,
      "Ġdeath": 2111,
      "ude": 2112,
      "Ġunus": 2113,
      "elling": 2114,
      "ellite": 2115,
      "uge": 2116,
      "Ġweap": 2117,
      "Ġweeks": 2118,
      "Ġoffice": 2119,
      "Ġkids": 2120,
      "alled": 2121,
      "aks": 2122,
      "Ġlet": 2123,
      "Ġlets": 2124,
      "Ġsaves": 2125,
      "Ġhaven": 2126,
      "Ġ11": 2127,
      "Ġ13": 2128,
      "Ġ14": 2129,
      "Ġ15": 2130,
      "sea": 2131,
      "Ġadded": 2132,
      "Ġenviron": 2133,
      "Ġseven": 2134,
      "ards": 2135,
      "Ġplanned": 2136,
      "izon": 2137,
      "Ġabo": 2138,
      "Ġround": 2139,
      "Ġupgr": 2140,
      "Ġdisapp": 2141,
      "Ġdiscover": 2142,
      "Ġserver": 2143,
      "Ġcool": 2144,
      "Ġcoast": 2145,
      "Ġie": 2146,
      "Ġago": 2147,
      "achers": 2148,
      "Ġphot": 2149,
      "Ġphelps": 2150,
      "Ġimages": 2151,
      "structure": 2152,
      "Ġresults": 2153,
      "Ġgoes": 2154,
      "Ġgoing": 2155,
      "uck": 2156,
      "ologists": 2157,
      "gery": 2158,
      "Ġmeet": 2159,
      "Ġindia": 2160,
      "Ġscientific": 2161,
      "Ġmarketing": 2162,
      "Ġservers": 2163,
      "Ġipod": 2164,
      "Ġarch": 2165,
      "Ġevidence": 2166,
      "Ġbrand": 2167,
      "Ġbrings": 2168,
      "Ġshows": 2169,
      "Ġcoll": 2170,
      "Ġmonkeys": 2171,
      "ocked": 2172,
      "Ġtechnolog": 2173,
      "Ġpred": 2174,
      "Ġprepar": 2175,
      "Ġdeveloped": 2176,
      "Ġsoar": 2177,
      "Ġsurgery": 2178,
      "Ġdrive": 2179,
      "Ġregul": 2180,
      "Ġregistration": 2181,
      "Ġearths": 2182,
      "Ġsale": 2183,
      "Ġcarry": 2184,
      "Ġwebsite": 2185,
      "goog": 2186,
      "Ġsaturn": 2187,
      "Ġfeature": 2188,
      "Ġstreet": 2189,
      "Ġmini": 2190,
      "ometer": 2191,
      "Ġleader": 2192,
      "Ġ2003": 2193,
      "Ġinvol": 2194,
      "Ġtropical": 2195,
      "formance": 2196,
      "month": 2197,
      "Ġfinds": 2198,
      "Ġwarming": 2199,
      "lett": 2200,
      "letes": 2201,
      "Ġfounders": 2202,
      "Ġbuys": 2203,
      "Ġgeneral": 2204,
      "Ġproduc": 2205,
      "Ġproduction": 2206,
      "Ġathletes": 2207,
      "Ġsouthern": 2208,
      "Ġattack": 2209,
      "Ġattacks": 2210,
      "Ġexpectations": 2211,
      "Ġedge": 2212,
      "Ġspecies": 2213,
      "Ġanti": 2214,
      "Ġfreestyle": 2215,
      "Ġforests": 2216,
      "Ġbank": 2217,
      "Ġshipping": 2218,
      "Ġbroadband": 2219,
      "146": 2220,
      "Ġcreate": 2221,
      "Ġdelays": 2222,
      "Ġvisit": 2223,
      "Ġchips": 2224,
      "Ġseeing": 2225,
      "Ġcreating": 2226,
      "Ġboth": 2227,
      "Ġmiles": 2228,
      "Ġmilit": 2229,
      "Ġstatic": 2230,
      "Ġformat": 2231,
      "Ġpossibly": 2232,
      "Ġbattle": 2233,
      "Ġbetter": 2234,
      "Ġbelie": 2235,
      "Ġboost": 2236,
      "Ġdoesn": 2237,
      "Ġcolumn": 2238,
      "Ġcolumbia": 2239,
      "Ġtravel": 2240,
      "Ġaustralia": 2241,
      "Ġbarre": 2242,
      "Ġbidding": 2243,
      "Ġmassive": 2244,
      "Ġeye": 2245,
      "Ġeyes": 2246,
      "Ġapplication": 2247,
      "Ġapplications": 2248,
      "Ġtitan": 2249,
      "Ġtrying": 2250,
      "Ġsuggest": 2251,
      "Ġcalifornia": 2252,
      "Ġemerg": 2253,
      "Ġhealthdaynews": 2254,
      "Ġpotential": 2255,
      "Ġmichael": 2256,
      "Ġhistor": 2257,
      "Ġlicense": 2258,
      "Ġexecutive": 2259,
      "Ġlearn": 2260,
      "Ġadministration": 2261,
      "Ġquestion": 2262,
      "Ġelectronic": 2263,
      "Ġtemper": 2264,
      "Ġsince": 2265,
      "Ġcamer": 2266,
      "Ġdarfur": 2267,
      "Ġprospect": 2268,
      "Ġvaccine": 2269,
      "Ġshuttle": 2270,
      "Ġchairman": 2271,
      "Ġconcerns": 2272,
      "Ġdevices": 2273,
      "Ġcloning": 2274,
      "Ġcirc": 2275,
      "Ġbirds": 2276,
      "Ġmistakes": 2277,
      "Ġmovie": 2278,
      "Ġseattle": 2279,
      "Ġqualifying": 2280,
      "Ġquickly": 2281,
      "Ġoutlook": 2282,
      "Ġfrancisco": 2283,
      "Ġdestinations": 2284,
      "Ġliberty": 2285,
      "nesot": 2286,
      "nanometer": 2287,
      "packard": 2288,
      "Ġthousands": 2289,
      "Ġmyster": 2290,
      "Ġtogether": 2291,
      "Ġhewlett": 2292,
      "Ġnuclear": 2293,
      "Ġecosystems": 2294,
      "Ġisrael": 2295,
      "Ġcommercial": 2296,
      "Ġchallen": 2297,
      "Ġenvironment": 2298,
      ",'": 2299,
      ".,": 2300,
      "//": 2301,
      "20": 2302,
      "://": 2303,
      "?\\\\": 2304,
      "ai": 2305,
      "aol": 2306,
      "ault": 2307,
      "bn": 2308,
      "bers": 2309,
      "back": 2310,
      "bab": 2311,
      "can": 2312,
      "cing": 2313,
      "city": 2314,
      "fir": 2315,
      "found": 2316,
      "gar": 2317,
      "grow": 2318,
      "geles": 2319,
      "hun": 2320,
      "hib": 2321,
      "ires": 2322,
      "just": 2323,
      "ker": 2324,
      "ll": 2325,
      "lier": 2326,
      "mar": 2327,
      "met": 2328,
      "not": 2329,
      "night": 2330,
      "nasa": 2331,
      "oon": 2332,
      "over": 2333,
      "pc": 2334,
      "ple": 2335,
      "pos": 2336,
      "sat": 2337,
      "scient": 2338,
      "ten": 2339,
      "tles": 2340,
      "uly": 2341,
      "uble": 2342,
      "vin": 2343,
      "volution": 2344,
      "vada": 2345,
      "wand": 2346,
      "wall": 2347,
      "Ġ8": 2348,
      "Ġq": 2349,
      "Ġer": 2350,
      "Ġur": 2351,
      "Ġid": 2352,
      "Ġille": 2353,
      "Ġtre": 2354,
      "Ġtun": 2355,
      "Ġtur": 2356,
      "Ġtaking": 2357,
      "Ġtask": 2358,
      "Ġaw": 2359,
      "Ġage": 2360,
      "ino": 2361,
      "ination": 2362,
      "Ġsit": 2363,
      "Ġsid": 2364,
      "Ġside": 2365,
      "eration": 2366,
      "Ġthail": 2367,
      "reg": 2368,
      "rey": 2369,
      "reen": 2370,
      "ream": 2371,
      "Ġca": 2372,
      "Ġcat": 2373,
      "Ġcit": 2374,
      "Ġcro": 2375,
      "Ġcel": 2376,
      "Ġcos": 2377,
      "Ġcand": 2378,
      "Ġcoun": 2379,
      "Ġcult": 2380,
      "Ġcatch": 2381,
      "Ġcross": 2382,
      "org": 2383,
      "orter": 2384,
      "ories": 2385,
      "esp": 2386,
      "esis": 2387,
      "anke": 2388,
      "atew": 2389,
      "Ġfle": 2390,
      "Ġfear": 2391,
      "Ġfield": 2392,
      "Ġpa": 2393,
      "Ġpatch": 2394,
      "Ġwent": 2395,
      "Ġwid": 2396,
      "Ġwave": 2397,
      "Ġoct": 2398,
      "Ġbill": 2399,
      "Ġband": 2400,
      "Ġbrow": 2401,
      "Ġbab": 2402,
      "Ġbased": 2403,
      "Ġboss": 2404,
      "Ġbubble": 2405,
      "Ġbird": 2406,
      "ened": 2407,
      "itoring": 2408,
      "Ġmen": 2409,
      "Ġmic": 2410,
      "Ġmid": 2411,
      "Ġmult": 2412,
      "ars": 2413,
      "arant": 2414,
      "ises": 2415,
      "Ġinj": 2416,
      "Ġinsp": 2417,
      "Ġinning": 2418,
      "ales": 2419,
      "alax": 2420,
      "Ġtough": 2421,
      "Ġtoward": 2422,
      "Ġtotal": 2423,
      "Ġdw": 2424,
      "Ġdor": 2425,
      "Ġdan": 2426,
      "Ġdom": 2427,
      "Ġdid": 2428,
      "Ġdist": 2429,
      "Ġdoc": 2430,
      "Ġdone": 2431,
      "Ġdue": 2432,
      "Ġdistr": 2433,
      "Ġdouble": 2434,
      "Ġhol": 2435,
      "Ġhim": 2436,
      "Ġhell": 2437,
      "Ġhour": 2438,
      "Ġhouse": 2439,
      "room": 2440,
      "icing": 2441,
      "ications": 2442,
      "icious": 2443,
      "lebr": 2444,
      "Ġancient": 2445,
      "Ġangeles": 2446,
      "Ġnb": 2447,
      "Ġnam": 2448,
      "Ġnation": 2449,
      "Ġnice": 2450,
      "Ġntp": 2451,
      "Ġlands": 2452,
      "Ġge": 2453,
      "Ġgear": 2454,
      "Ġgot": 2455,
      "Ġgain": 2456,
      "Ġgeor": 2457,
      "Ġgave": 2458,
      "Ġgives": 2459,
      "Ġgiven": 2460,
      "Ġgalax": 2461,
      "oman": 2462,
      "Ġreb": 2463,
      "Ġrem": 2464,
      "Ġren": 2465,
      "Ġrece": 2466,
      "Ġrestr": 2467,
      "Ġreact": 2468,
      "Ġreven": 2469,
      "Ġrecover": 2470,
      "Ġrethin": 2471,
      "acter": 2472,
      "Ġeach": 2473,
      "ashing": 2474,
      "utes": 2475,
      "ilip": 2476,
      "ilities": 2477,
      "Ġstra": 2478,
      "unes": 2479,
      "univers": 2480,
      "ided": 2481,
      "thers": 2482,
      "olf": 2483,
      "ades": 2484,
      "adian": 2485,
      "Ġrul": 2486,
      "Ġrain": 2487,
      "Ġbeats": 2488,
      "Ġprocess": 2489,
      "Ġprobab": 2490,
      "Ġyanke": 2491,
      "Ġval": 2492,
      "Ġvul": 2493,
      "Ġvia": 2494,
      "Ġvict": 2495,
      "Ġvote": 2496,
      "Ġspaces": 2497,
      "Ġspeed": 2498,
      "Ġspurt": 2499,
      "Ġwhite": 2500,
      "Ġwhale": 2501,
      "Ġjones": 2502,
      "estial": 2503,
      "opes": 2504,
      "Ġcomets": 2505,
      "Ġexam": 2506,
      "ills": 2507,
      "Ġasian": 2508,
      "ipped": 2509,
      "Ġchic": 2510,
      "Ġchimp": 2511,
      "Ġatmos": 2512,
      "ighbor": 2513,
      "Ġplus": 2514,
      "Ġplaced": 2515,
      "uls": 2516,
      "Ġaler": 2517,
      "ump": 2518,
      "quarter": 2519,
      "Ġarea": 2520,
      "Ġaren": 2521,
      "ived": 2522,
      "Ġdep": 2523,
      "Ġdeals": 2524,
      "ellers": 2525,
      "Ġcomputers": 2526,
      "ateg": 2527,
      "acking": 2528,
      "Ġworm": 2529,
      "Ġworth": 2530,
      "Ġworries": 2531,
      "Ġclone": 2532,
      "akers": 2533,
      "coming": 2534,
      "Ġitself": 2535,
      "Ġsave": 2536,
      "Ġ18": 2537,
      "Ġadop": 2538,
      "Ġadapt": 2539,
      "Ġadvertis": 2540,
      "Ġmove": 2541,
      "Ġmoves": 2542,
      "Ġmoving": 2543,
      "Ġmozilla": 2544,
      "Ġenc": 2545,
      "Ġend": 2546,
      "Ġscreen": 2547,
      "Ġoracle": 2548,
      "Ġorigin": 2549,
      "Ġsees": 2550,
      "Ġtele": 2551,
      "ongs": 2552,
      "Ġwasn": 2553,
      "Ġabs": 2554,
      "Ġblues": 2555,
      "Ġintroduc": 2556,
      "Ġrole": 2557,
      "Ġroad": 2558,
      "Ġupdate": 2559,
      "Ġdise": 2560,
      "Ġserious": 2561,
      "Ġneighbor": 2562,
      "Ġallows": 2563,
      "Ġopec": 2564,
      "ured": 2565,
      "Ġtran": 2566,
      "Ġafp": 2567,
      "Ġcover": 2568,
      "Ġovernight": 2569,
      "aval": 2570,
      "Ġphilip": 2571,
      "Ġdoz": 2572,
      "Ġdoom": 2573,
      "msft": 2574,
      "msource": 2575,
      "Ġflight": 2576,
      "Ġflaw": 2577,
      "Ġappe": 2578,
      "Ġmean": 2579,
      "Ġmeat": 2580,
      "Ġmeas": 2581,
      "Ġmeans": 2582,
      "Ġmeets": 2583,
      "Ġmexic": 2584,
      "Ġindic": 2585,
      "Ġindian": 2586,
      "Ġevent": 2587,
      "Ġevolution": 2588,
      "Ġbring": 2589,
      "connections": 2590,
      "abase": 2591,
      "ability": 2592,
      "eff": 2593,
      "efits": 2594,
      "Ġmanuf": 2595,
      "Ġexperience": 2596,
      "Ġexperimental": 2597,
      "Ġsox": 2598,
      "Ġparty": 2599,
      "Ġpartic": 2600,
      "ysis": 2601,
      "Ġhigher": 2602,
      "Ġstrange": 2603,
      "Ġslip": 2604,
      "Ġworkers": 2605,
      "phere": 2606,
      "Ġsatellite": 2607,
      "Ġfeed": 2608,
      "Ġfeel": 2609,
      "Ġcoral": 2610,
      "Ġminnesot": 2611,
      "ished": 2612,
      "servers": 2613,
      "Ġunderw": 2614,
      "Ġunderway": 2615,
      "Ġtroops": 2616,
      "Ġtrouble": 2617,
      "Ġperformance": 2618,
      "Ġgetting": 2619,
      "ample": 2620,
      "Ġnorwe": 2621,
      "Ġlater": 2622,
      "Ġcrit": 2623,
      "Ġcrude": 2624,
      "Ġwarning": 2625,
      "lete": 2626,
      "Ġguys": 2627,
      "apple": 2628,
      "Ġexplains": 2629,
      "Ġ40": 2630,
      "Ġbuy": 2631,
      "Ġgene": 2632,
      "Ġgenesis": 2633,
      "ption": 2634,
      "Ġcustom": 2635,
      "Ġlinks": 2636,
      "Ġcorpor": 2637,
      "Ġedition": 2638,
      "Ġsenior": 2639,
      "Ġcraft": 2640,
      "ically": 2641,
      "Ġgrew": 2642,
      "Ġgreen": 2643,
      "fully": 2644,
      "Ġdvds": 2645,
      "Ġanticip": 2646,
      "Ġrepublic": 2647,
      "Ġreporter": 2648,
      "verse": 2649,
      "Ġsubmit": 2650,
      "Ġfreed": 2651,
      "Ġforeign": 2652,
      "Ġpoint": 2653,
      "Ġwinning": 2654,
      "Ġmedical": 2655,
      "Ġlarge": 2656,
      "Ġelection": 2657,
      "Ġadvice": 2658,
      "Ġbroadcast": 2659,
      "mobile": 2660,
      "Ġcrew": 2661,
      "Ġfiled": 2662,
      "Ġpcs": 2663,
      "Ġdatabase": 2664,
      "Ġdeliver": 2665,
      "Ġprofit": 2666,
      "Ġclaim": 2667,
      "Ġincludes": 2668,
      "Ġretailers": 2669,
      "Ġcapital": 2670,
      "Ġpolice": 2671,
      "Ġpowers": 2672,
      "Ġdropped": 2673,
      "Ġranking": 2674,
      "Ġconfig": 2675,
      "Ġinsur": 2676,
      "Ġinside": 2677,
      "Ġvoicem": 2678,
      "Ġvariant": 2679,
      "Ġclassified": 2680,
      "Ġblacklist": 2681,
      "Ġdispute": 2682,
      "Ġincreasing": 2683,
      "prise": 2684,
      "Ġaustralian": 2685,
      "Ġsimcity": 2686,
      "Ġfamous": 2687,
      "Ġlunine": 2688,
      "Ġauthorities": 2689,
      "afp": 2690,
      "Ġtalks": 2691,
      "Ġsuite": 2692,
      "Ġsuff": 2693,
      "Ġcelebr": 2694,
      "Ġfunds": 2695,
      "Ġpurch": 2696,
      "Ġbreak": 2697,
      "Ġbenefits": 2698,
      "Ġload": 2699,
      "Ġstorm": 2700,
      "Ġapproved": 2701,
      "Ġinvestors": 2702,
      "Ġsuspect": 2703,
      "Ġwiscons": 2704,
      "Ġanalysis": 2705,
      "Ġlocal": 2706,
      "Ġrespon": 2707,
      "Ġrisk": 2708,
      "Ġjudge": 2709,
      "Ġcloud": 2710,
      "Ġclouds": 2711,
      "Ġmodel": 2712,
      "Ġprivate": 2713,
      "Ġconsumer": 2714,
      "Ġbudget": 2715,
      "Ġhalf": 2716,
      "Ġrevealed": 2717,
      "Ġeffect": 2718,
      "Ġradio": 2719,
      "Ġcompetition": 2720,
      "Ġtechniques": 2721,
      "Ġamazon": 2722,
      "Ġsurrender": 2723,
      "Ġgranted": 2724,
      "Ġembry": 2725,
      "Ġpleads": 2726,
      "?\"\\\\\"": 2727,
      "life": 2728,
      "Ġidea": 2729,
      "infocus": 2730,
      "Ġcrowd": 2731,
      "Ġdolphin": 2732,
      "Ġrapid": 2733,
      "Ġcheap": 2734,
      "Ġchannel": 2735,
      "Ġinventory": 2736,
      "Ġinfrastructure": 2737,
      "Ġvirginia": 2738,
      "Ġpolitics": 2739,
      "Ġdemocratic": 2740,
      "Ġapparently": 2741,
      "http": 2742,
      "odesk": 2743,
      "Ġultra": 2744,
      "Ġaerosp": 2745,
      "Ġfootball": 2746,
      "Ġunusual": 2747,
      "Ġabove": 2748,
      "Ġdisappo": 2749,
      "Ġtechnologies": 2750,
      "Ġproducts": 2751,
      "Ġbelieve": 2752,
      "Ġtemperatures": 2753,
      "Ġcamera": 2754,
      "Ġisraeli": 2755,
      "Ġenvironmental": 2756,
      "garian": 2757,
      "scientists": 2758,
      "Ġillegal": 2759,
      "Ġthailand": 2760,
      "Ġcelestial": 2761,
      "ateway": 2762,
      "Ġbaby": 2763,
      "Ġdocuments": 2764,
      "Ġrevenue": 2765,
      "Ġprobably": 2766,
      "Ġyankees": 2767,
      "Ġvulner": 2768,
      "Ġspaceship": 2769,
      "Ġphilipp": 2770,
      "Ġmexico": 2771,
      "Ġmanufact": 2772,
      "Ġnorwegian": 2773,
      "Ġwisconsin": 2774,
      ")'": 2775,
      ");": 2776,
      ",\\": 2777,
      "--": 2778,
      "29": 2779,
      "40": 2780,
      "44": 2781,
      "50": 2782,
      "60": 2783,
      "96": 2784,
      ":\\\\\"": 2785,
      ";.": 2786,
      "?!": 2787,
      "\\(": 2788,
      "aed": 2789,
      "but": 2790,
      "bud": 2791,
      "bian": 2792,
      "bled": 2793,
      "bility": 2794,
      "cn": 2795,
      "cu": 2796,
      "ces": 2797,
      "cue": 2798,
      "clic": 2799,
      "cels": 2800,
      "dog": 2801,
      "dated": 2802,
      "double": 2803,
      "does": 2804,
      "eu": 2805,
      "face": 2806,
      "ffor": 2807,
      "fcc": 2808,
      "gain": 2809,
      "hs": 2810,
      "hol": 2811,
      "how": 2812,
      "ham": 2813,
      "hoo": 2814,
      "hack": 2815,
      "hood": 2816,
      "hubble": 2817,
      "house": 2818,
      "ius": 2819,
      "iam": 2820,
      "iation": 2821,
      "iors": 2822,
      "iences": 2823,
      "jan": 2824,
      "japan": 2825,
      "java": 2826,
      "kok": 2827,
      "lar": 2828,
      "log": 2829,
      "like": 2830,
      "mal": 2831,
      "mers": 2832,
      "mone": 2833,
      "max": 2834,
      "nat": 2835,
      "nal": 2836,
      "ntp": 2837,
      "ob": 2838,
      "od": 2839,
      "oh": 2840,
      "ov": 2841,
      "oil": 2842,
      "pre": 2843,
      "pal": 2844,
      "put": 2845,
      "pam": 2846,
      "pass": 2847,
      "pted": 2848,
      "ran": 2849,
      "rup": 2850,
      "rated": 2851,
      "rann": 2852,
      "sing": 2853,
      "sou": 2854,
      "sec": 2855,
      "sun": 2856,
      "search": 2857,
      "side": 2858,
      "scrib": 2859,
      "sari": 2860,
      "ta": 2861,
      "tr": 2862,
      "tro": 2863,
      "ties": 2864,
      "tomet": 2865,
      "wing": 2866,
      "wide": 2867,
      "watch": 2868,
      "xes": 2869,
      "Ġ*": 2870,
      "Ġ,": 2871,
      "Ġ0": 2872,
      "Ġes": 2873,
      "Ġut": 2874,
      "Ġent": 2875,
      "Ġve": 2876,
      "Ġess": 2877,
      "Ġign": 2878,
      "Ġ);": 2879,
      "Ġtin": 2880,
      "Ġton": 2881,
      "Ġtap": 2882,
      "Ġtah": 2883,
      "Ġable": 2884,
      "Ġaster": 2885,
      "inv": 2886,
      "inated": 2887,
      "inting": 2888,
      "inals": 2889,
      "inese": 2890,
      "Ġsle": 2891,
      "Ġsoc": 2892,
      "Ġsure": 2893,
      "Ġsens": 2894,
      "Ġsick": 2895,
      "Ġschool": 2896,
      "Ġsongs": 2897,
      "erm": 2898,
      "erver": 2899,
      "Ġthings": 2900,
      "rec": 2901,
      "Ġthems": 2902,
      "Ġcle": 2903,
      "Ġcou": 2904,
      "Ġcame": 2905,
      "Ġcaus": 2906,
      "Ġcash": 2907,
      "Ġcisco": 2908,
      "orers": 2909,
      "ank": 2910,
      "anim": 2911,
      "anian": 2912,
      "ato": 2913,
      "atter": 2914,
      "atically": 2915,
      "Ġfig": 2916,
      "Ġfill": 2917,
      "Ġfine": 2918,
      "Ġfast": 2919,
      "Ġfav": 2920,
      "Ġfans": 2921,
      "Ġfund": 2922,
      "Ġfren": 2923,
      "Ġfoss": 2924,
      "Ġfish": 2925,
      "Ġfcc": 2926,
      "Ġfocus": 2927,
      "Ġfacing": 2928,
      "Ġfighter": 2929,
      "Ġpan": 2930,
      "Ġpra": 2931,
      "Ġpoun": 2932,
      "Ġport": 2933,
      "Ġpub": 2934,
      "Ġpens": 2935,
      "Ġputs": 2936,
      "Ġpict": 2937,
      "Ġpush": 2938,
      "Ġways": 2939,
      "Ġwins": 2940,
      "Ġwester": 2941,
      "Ġoler": 2942,
      "Ġocc": 2943,
      "Ġbin": 2944,
      "Ġbol": 2945,
      "Ġbow": 2946,
      "Ġball": 2947,
      "Ġborn": 2948,
      "Ġbites": 2949,
      "enz": 2950,
      "enomen": 2951,
      "ingly": 2952,
      "itute": 2953,
      "Ġmer": 2954,
      "Ġmor": 2955,
      "Ġmac": 2956,
      "Ġmig": 2957,
      "Ġmind": 2958,
      "Ġmys": 2959,
      "Ġmatch": 2960,
      "Ġmount": 2961,
      "Ġmax": 2962,
      "arm": 2963,
      "arp": 2964,
      "edition": 2965,
      "ishing": 2966,
      "ispam": 2967,
      "alized": 2968,
      "Ġtoys": 2969,
      "Ġtoky": 2970,
      "Ġdam": 2971,
      "Ġdra": 2972,
      "Ġdog": 2973,
      "Ġdav": 2974,
      "Ġdoll": 2975,
      "Ġdying": 2976,
      "Ġdiet": 2977,
      "Ġdinos": 2978,
      "Ġdrove": 2979,
      "Ġduke": 2980,
      "Ġhd": 2981,
      "Ġhon": 2982,
      "Ġhel": 2983,
      "Ġhoo": 2984,
      "Ġhold": 2985,
      "Ġhands": 2986,
      "Ġhole": 2987,
      "Ġhuge": 2988,
      "icit": 2989,
      "lex": 2990,
      "Ġanother": 2991,
      "Ġansari": 2992,
      "stor": 2993,
      "stud": 2994,
      "ouis": 2995,
      "Ġnations": 2996,
      "Ġnfl": 2997,
      "Ġnests": 2998,
      "Ġland": 2999,
      "Ġline": 3000,
      "Ġlack": 3001,
      "Ġlouis": 3002,
      "Ġgive": 3003,
      "Ġgath": 3004,
      "Ġgateway": 3005,
      "Ġgerm": 3006,
      "omb": 3007,
      "oming": 3008,
      "Ġrenew": 3009,
      "Ġreview": 3010,
      "Ġremo": 3011,
      "Ġrevolution": 3012,
      "acol": 3013,
      "Ġeight": 3014,
      "Ġeffor": 3015,
      "erson": 3016,
      "utions": 3017,
      "eline": 3018,
      "elves": 3019,
      "Ġstay": 3020,
      "Ġstamp": 3021,
      "Ġstocks": 3022,
      "ecess": 3023,
      "urb": 3024,
      "ural": 3025,
      "urers": 3026,
      "urity": 3027,
      "idual": 3028,
      "through": 3029,
      "olics": 3030,
      "Ġonboard": 3031,
      "owled": 3032,
      "ading": 3033,
      "usc": 3034,
      "using": 3035,
      "apest": 3036,
      "imes": 3037,
      "amd": 3038,
      "iring": 3039,
      "iracy": 3040,
      "ooting": 3041,
      "ewhere": 3042,
      "Ġriv": 3043,
      "Ġrate": 3044,
      "Ġrich": 3045,
      "Ġrise": 3046,
      "Ġrats": 3047,
      "Ġbees": 3048,
      "change": 3049,
      "cheney": 3050,
      "tery": 3051,
      "Ġprove": 3052,
      "Ġvess": 3053,
      "Ġvend": 3054,
      "Ġwhales": 3055,
      "osaur": 3056,
      "Ġjon": 3057,
      "Ġjuly": 3058,
      "ceed": 3059,
      "estic": 3060,
      "otype": 3061,
      "Ġshe": 3062,
      "Ġshop": 3063,
      "Ġshooting": 3064,
      "Ġcomb": 3065,
      "Ġcomes": 3066,
      "Ġcomments": 3067,
      "Ġexist": 3068,
      "Ġexcept": 3069,
      "Ġexample": 3070,
      "Ġexchange": 3071,
      "Ġchinese": 3072,
      "Ġatlant": 3073,
      "ored": 3074,
      "Ġplaces": 3075,
      "ify": 3076,
      "ems": 3077,
      "emon": 3078,
      "Ġapi": 3079,
      "Ġalive": 3080,
      "Ġalmost": 3081,
      "Ġwithin": 3082,
      "umn": 3083,
      "ument": 3084,
      "usts": 3085,
      "Ġnewsp": 3086,
      "Ġconstr": 3087,
      "Ġcongress": 3088,
      "ivity": 3089,
      "ividual": 3090,
      "Ġdeploy": 3091,
      "ago": 3092,
      "ager": 3093,
      "aging": 3094,
      "ague": 3095,
      "Ġunh": 3096,
      "Ġunle": 3097,
      "Ġunve": 3098,
      "Ġuniqu": 3099,
      "ellar": 3100,
      "Ġcomplete": 3101,
      "Ġworse": 3102,
      "Ġworms": 3103,
      "Ġexpedition": 3104,
      "Ġweight": 3105,
      "Ġweather": 3106,
      "Ġoffsh": 3107,
      "Ġking": 3108,
      "Ġcluster": 3109,
      "compl": 3110,
      "ection": 3111,
      "Ġleg": 3112,
      "Ġleast": 3113,
      "Ġleaves": 3114,
      "Ġsaf": 3115,
      "Ġsaw": 3116,
      "Ġ100": 3117,
      "Ġads": 3118,
      "Ġadjust": 3119,
      "indling": 3120,
      "Ġusef": 3121,
      "ubled": 3122,
      "Ġens": 3123,
      "Ġended": 3124,
      "Ġendan": 3125,
      "Ġenergy": 3126,
      "ryption": 3127,
      "Ġscore": 3128,
      "artner": 3129,
      "Ġsea": 3130,
      "Ġsepar": 3131,
      "Ġtext": 3132,
      "Ġspacefl": 3133,
      "izing": 3134,
      "ples": 3135,
      "plies": 3136,
      "Ġability": 3137,
      "Ġblast": 3138,
      "Ġblue": 3139,
      "Ġblaster": 3140,
      "Ġblood": 3141,
      "Ġmarine": 3142,
      "Ġinte": 3143,
      "Ġintr": 3144,
      "Ġintense": 3145,
      "ients": 3146,
      "Ġrobo": 3147,
      "Ġquarant": 3148,
      "Ġaccept": 3149,
      "Ġackn": 3150,
      "Ġaccompl": 3151,
      "Ġdisk": 3152,
      "Ġdisaster": 3153,
      "Ġnevada": 3154,
      "Ġallig": 3155,
      "Ġallowed": 3156,
      "Ġallergy": 3157,
      "Ġopens": 3158,
      "Ġoptim": 3159,
      "Ġoppos": 3160,
      "Ġtrue": 3161,
      "Ġafrican": 3162,
      "Ġearlier": 3163,
      "Ġlaur": 3164,
      "Ġlake": 3165,
      "Ġcoin": 3166,
      "Ġovert": 3167,
      "Ġagree": 3168,
      "Ġphenomen": 3169,
      "Ġimport": 3170,
      "Ġpract": 3171,
      "ension": 3172,
      "ensive": 3173,
      "Ġdoing": 3174,
      "Ġdoct": 3175,
      "Ġresign": 3176,
      "Ġflu": 3177,
      "Ġflow": 3178,
      "Ġflip": 3179,
      "iley": 3180,
      "rows": 3181,
      "theaster": 3182,
      "ford": 3183,
      "gered": 3184,
      "assini": 3185,
      "vio": 3186,
      "Ġscientist": 3187,
      "Ġarg": 3188,
      "Ġevents": 3189,
      "Ġfront": 3190,
      "Ġbright": 3191,
      "Ġshowed": 3192,
      "Ġteams": 3193,
      "Ġtwice": 3194,
      "Ġcollect": 3195,
      "Ġmonitoring": 3196,
      "Ġplayers": 3197,
      "abilities": 3198,
      "Ġpeaks": 3199,
      "Ġprevent": 3200,
      "Ġcontent": 3201,
      "Ġcontest": 3202,
      "Ġamid": 3203,
      "Ġsecurities": 3204,
      "ultane": 3205,
      "getlog": 3206,
      "ancial": 3207,
      "Ġregister": 3208,
      "Ġreturned": 3209,
      "Ġengland": 3210,
      "central": 3211,
      "Ġsupply": 3212,
      "Ġsupplies": 3213,
      "ashes": 3214,
      "Ġjob": 3215,
      "Ġworkah": 3216,
      "ahead": 3217,
      "Ġsaying": 3218,
      "Ġstrep": 3219,
      "Ġstreets": 3220,
      "Ġstreaking": 3221,
      "Ġcalling": 3222,
      "Ġfinancial": 3223,
      "Ġwindow": 3224,
      "Ġminister": 3225,
      "Ġreality": 3226,
      "Ġstudent": 3227,
      "Ġstudio": 3228,
      "Ġleads": 3229,
      "Ġ2005": 3230,
      "server": 3231,
      "series": 3232,
      "Ġdesk": 3233,
      "Ġdescrib": 3234,
      "Ġengineers": 3235,
      "Ġtroubled": 3236,
      "Ġoffered": 3237,
      "Ġnorthern": 3238,
      "Ġnormal": 3239,
      "Ġconsult": 3240,
      "Ġconsider": 3241,
      "Ġwarnings": 3242,
      "apped": 3243,
      "Ġexplos": 3244,
      "Ġexplain": 3245,
      "Ġexplorers": 3246,
      "Ġopening": 3247,
      "timore": 3248,
      "Ġ48": 3249,
      "Ġsolutions": 3250,
      "Ġpark": 3251,
      "Ġbuild": 3252,
      "Ġbuying": 3253,
      "Ġautodesk": 3254,
      "Ġsoutheaster": 3255,
      "anny": 3256,
      "Ġlonger": 3257,
      "Ġgrows": 3258,
      "Ġattem": 3259,
      "Ġdefence": 3260,
      "Ġdefending": 3261,
      "Ġdeficit": 3262,
      "Ġknown": 3263,
      "Ġknocked": 3264,
      "Ġsmart": 3265,
      "150": 3266,
      "brit": 3267,
      "jected": 3268,
      "Ġsenator": 3269,
      "Ġgreek": 3270,
      "Ġgreece": 3271,
      "Ġbegin": 3272,
      "sharp": 3273,
      "Ġaction": 3274,
      "Ġsometimes": 3275,
      "Ġpatent": 3276,
      "Ġpatients": 3277,
      "Ġantispam": 3278,
      "Ġreflect": 3279,
      "Ġreports": 3280,
      "Ġpressure": 3281,
      "missing": 3282,
      "missions": 3283,
      "oids": 3284,
      "Ġswim": 3285,
      "Ġswitch": 3286,
      "Ġsubscrib": 3287,
      "Ġforecast": 3288,
      "Ġfourth": 3289,
      "Ġpoachers": 3290,
      "Ġobtain": 3291,
      "Ġmedia": 3292,
      "Ġmagnet": 3293,
      "Ġdeck": 3294,
      "Ġdecision": 3295,
      "Ġadvance": 3296,
      "Ġadvanced": 3297,
      "Ġimpact": 3298,
      "Ġimprove": 3299,
      "Ġmeteorologists": 3300,
      "Ġastronomers": 3301,
      "147": 3302,
      "148": 3303,
      "Ġfilm": 3304,
      "imself": 3305,
      "Ġprofess": 3306,
      "Ġprofits": 3307,
      "Ġprototype": 3308,
      "Ġverizon": 3309,
      "Ġchipmaker": 3310,
      "Ġheads": 3311,
      "Ġheaded": 3312,
      "Ġinclude": 3313,
      "Ġlaunched": 3314,
      "Ġsky": 3315,
      "Ġskies": 3316,
      "Ġskills": 3317,
      "Ġcapt": 3318,
      "Ġcreative": 3319,
      "Ġready": 3320,
      "Ġreaches": 3321,
      "Ġreached": 3322,
      "Ġstatement": 3323,
      "Ġdiscs": 3324,
      "Ġdiscoun": 3325,
      "Ġdrugs": 3326,
      "Ġannounce": 3327,
      "blast": 3328,
      "iety": 3329,
      "Ġtesting": 3330,
      "Ġstores": 3331,
      "Ġvarious": 3332,
      "Ġplanetary": 3333,
      "Ġdispers": 3334,
      "Ġincreased": 3335,
      "Ġkeeping": 3336,
      "Ġknowled": 3337,
      "onsible": 3338,
      "Ġfamed": 3339,
      "Ġposted": 3340,
      "Ġwrap": 3341,
      "Ġwrong": 3342,
      "Ġbargain": 3343,
      "Ġglimp": 3344,
      "Ġrussia": 3345,
      "Ġsharply": 3346,
      "Ġblogs": 3347,
      "Ġbritain": 3348,
      "Ġglobular": 3349,
      "Ġtalk": 3350,
      "Ġsym": 3351,
      "Ġwanted": 3352,
      "Ġmember": 3353,
      "Ġmembers": 3354,
      "Ġinstant": 3355,
      "Ġreasons": 3356,
      "Ġemerging": 3357,
      "Ġinvestig": 3358,
      "Ġsuspended": 3359,
      "Ġbugs": 3360,
      "Ġhistory": 3361,
      "Ġrelay": 3362,
      "Ġresponsible": 3363,
      "Ġrisks": 3364,
      "Ġspotlight": 3365,
      "Ġexecutives": 3366,
      "Ġcharley": 3367,
      "Ġexploit": 3368,
      "Ġexploded": 3369,
      "companies": 3370,
      "Ġ125": 3371,
      "Ġadministr": 3372,
      "Ġtransform": 3373,
      "Ġprivacy": 3374,
      "Ġsettlement": 3375,
      "Ġconsumers": 3376,
      "Ġviolence": 3377,
      "Ġelectronics": 3378,
      "Ġprotection": 3379,
      "Ġfollowed": 3380,
      "Ġfollowing": 3381,
      "Ġpalmsource": 3382,
      "Ġpollution": 3383,
      "Ġwonder": 3384,
      "Ġwildlife": 3385,
      "Ġbaltimore": 3386,
      "Ġtools": 3387,
      "Ġhitler": 3388,
      "Ġhacker": 3389,
      "Ġhackers": 3390,
      "Ġlimited": 3391,
      "Ġeuropean": 3392,
      "Ġstandards": 3393,
      "Ġdebian": 3394,
      "Ġdeadline": 3395,
      "Ġfloor": 3396,
      "Ġtechnique": 3397,
      "Ġcontract": 3398,
      "Ġcontinue": 3399,
      "Ġsurrenders": 3400,
      "Ġsmaller": 3401,
      "progress": 3402,
      "Ġtreatments": 3403,
      "Ġsingle": 3404,
      "Ġsempo": 3405,
      "Ġbasket": 3406,
      "Ġmatt": 3407,
      "Ġmalicious": 3408,
      "Ġhappy": 3409,
      "Ġproperty": 3410,
      "Ġchanging": 3411,
      "Ġchecked": 3412,
      "Ġchampion": 3413,
      "Ġchampions": 3414,
      "Ġrobotic": 3415,
      "Ġpreviously": 3416,
      "Ġmanagers": 3417,
      "Ġcontrol": 3418,
      "Ġminority": 3419,
      "Ġminorities": 3420,
      "Ġunderstand": 3421,
      "Ġnetworks": 3422,
      "Ġnetworking": 3423,
      "Ġinflu": 3424,
      "Ġproposed": 3425,
      "building": 3426,
      "power": 3427,
      "saudi": 3428,
      "Ġsapient": 3429,
      "Ġcytomet": 3430,
      "Ġcertain": 3431,
      "Ġfurther": 3432,
      "Ġpioneer": 3433,
      "Ġmachine": 3434,
      "Ġtourism": 3435,
      "Ġdirect": 3436,
      "Ġlady": 3437,
      "Ġelements": 3438,
      "olympics": 3439,
      "Ġcommunications": 3440,
      "Ġconduct": 3441,
      "Ġweapon": 3442,
      "Ġdiscovered": 3443,
      "Ġpredict": 3444,
      "Ġpreparing": 3445,
      "Ġbarrels": 3446,
      "Ġemergency": 3447,
      "Ġhistoric": 3448,
      "Ġchallenges": 3449,
      "first": 3450,
      "growth": 3451,
      "saturn": 3452,
      "wandan": 3453,
      "Ġqaed": 3454,
      "Ġcandid": 3455,
      "Ġcounter": 3456,
      "Ġculture": 3457,
      "Ġmicro": 3458,
      "Ġinjury": 3459,
      "Ġdwindling": 3460,
      "Ġdanger": 3461,
      "Ġdomestic": 3462,
      "Ġdisturb": 3463,
      "Ġhellip": 3464,
      "Ġhours": 3465,
      "Ġnbsp": 3466,
      "Ġnamed": 3467,
      "Ġlandscap": 3468,
      "Ġgeorgian": 3469,
      "Ġgalaxies": 3470,
      "Ġrecovery": 3471,
      "university": 3472,
      "Ġrules": 3473,
      "Ġrainfall": 3474,
      "Ġchicago": 3475,
      "Ġatmosphere": 3476,
      "Ġalert": 3477,
      "Ġadvertising": 3478,
      "Ġencryption": 3479,
      "Ġtransp": 3480,
      "Ġdozen": 3481,
      "Ġbringing": 3482,
      "effrey": 3483,
      "Ġminnesota": 3484,
      "Ġunderwater": 3485,
      "Ġcritical": 3486,
      "Ġcustomer": 3487,
      "Ġcorporate": 3488,
      "Ġanticipated": 3489,
      "Ġfreedom": 3490,
      "Ġinsurance": 3491,
      "Ġvoicemail": 3492,
      "Ġincreasingly": 3493,
      "Ġbreakthrough": 3494,
      "Ġresponse": 3495,
      "Ġembryos": 3496,
      "Ġrapidly": 3497,
      "Ġaerospace": 3498,
      "Ġdisappointing": 3499,
      "Ġphilippines": 3500,
      "Ġmanufacturers": 3501,
      "cnn": 3502,
      "click": 3503,
      "doubleclick": 3504,
      "hamou": 3505,
      "hacker": 3506,
      "rannosaur": 3507,
      "Ġessential": 3508,
      "Ġ);\\\\": 3509,
      "Ġtiny": 3510,
      "Ġasteroids": 3511,
      "Ġsleep": 3512,
      "Ġthemselves": 3513,
      "Ġfrench": 3514,
      "Ġpounds": 3515,
      "Ġpubl": 3516,
      "Ġpensacol": 3517,
      "Ġwestern": 3518,
      "Ġolerud": 3519,
      "Ġbowl": 3520,
      "Ġmountain": 3521,
      "Ġtokyo": 3522,
      "Ġdavis": 3523,
      "Ġgathered": 3524,
      "Ġefforts": 3525,
      "Ġrivals": 3526,
      "Ġnewspaper": 3527,
      "Ġunique": 3528,
      "Ġuseful": 3529,
      "Ġendangered": 3530,
      "Ġspaceflight": 3531,
      "Ġrobots": 3532,
      "Ġquarantine": 3533,
      "Ġacknowled": 3534,
      "Ġpractice": 3535,
      "ultaneous": 3536,
      "getlogger": 3537,
      "Ġworkaholics": 3538,
      "Ġsoutheastern": 3539,
      "Ġsubscribers": 3540,
      "Ġglimpse": 3541,
      "Ġqaeda": 3542,
      "rannosaurus": 3543,
      "Ġpensacola": 3544,
      "'ll": 3545,
      ").": 3546,
      ").\\\\": 3547,
      "/&": 3548,
      "244": 3549,
      "300": 3550,
      "46": 3551,
      "47": 3552,
      "55": 3553,
      "830": 3554,
      "98": 3555,
      "aa": 3556,
      "ait": 3557,
      "aut": 3558,
      "aine": 3559,
      "aard": 3560,
      "aiz": 3561,
      "augh": 3562,
      "awn": 3563,
      "away": 3564,
      "austral": 3565,
      "aemon": 3566,
      "bre": 3567,
      "bes": 3568,
      "ban": 3569,
      "bar": 3570,
      "bts": 3571,
      "bul": 3572,
      "bles": 3573,
      "book": 3574,
      "brows": 3575,
      "ca": 3576,
      "ck": 3577,
      "car": 3578,
      "cel": 3579,
      "cest": 3580,
      "cop": 3581,
      "core": 3582,
      "care": 3583,
      "card": 3584,
      "creat": 3585,
      "cost": 3586,
      "cles": 3587,
      "cyn": 3588,
      "cale": 3589,
      "called": 3590,
      "da": 3591,
      "dh": 3592,
      "do": 3593,
      "dr": 3594,
      "dy": 3595,
      "dle": 3596,
      "del": 3597,
      "did": 3598,
      "dim": 3599,
      "dist": 3600,
      "def": 3601,
      "dolph": 3602,
      "duke": 3603,
      "dream": 3604,
      "danny": 3605,
      "ez": 3606,
      "eas": 3607,
      "eum": 3608,
      "eors": 3609,
      "elect": 3610,
      "eason": 3611,
      "eered": 3612,
      "fr": 3613,
      "far": 3614,
      "fed": 3615,
      "foo": 3616,
      "fire": 3617,
      "fake": 3618,
      "fund": 3619,
      "feed": 3620,
      "frent": 3621,
      "ga": 3622,
      "gre": 3623,
      "gers": 3624,
      "gra": 3625,
      "gust": 3626,
      "ggle": 3627,
      "gens": 3628,
      "game": 3629,
      "group": 3630,
      "games": 3631,
      "gather": 3632,
      "gkok": 3633,
      "ha": 3634,
      "har": 3635,
      "hop": 3636,
      "hinos": 3637,
      "hod": 3638,
      "ien": 3639,
      "iol": 3640,
      "iate": 3641,
      "iece": 3642,
      "jo": 3643,
      "jud": 3644,
      "jans": 3645,
      "kan": 3646,
      "kom": 3647,
      "kie": 3648,
      "len": 3649,
      "last": 3650,
      "long": 3651,
      "mf": 3652,
      "mm": 3653,
      "mic": 3654,
      "main": 3655,
      "mage": 3656,
      "math": 3657,
      "maur": 3658,
      "makers": 3659,
      "na": 3660,
      "non": 3661,
      "nand": 3662,
      "nology": 3663,
      "nick": 3664,
      "ney": 3665,
      "nesty": 3666,
      "oe": 3667,
      "oth": 3668,
      "ots": 3669,
      "oice": 3670,
      "ober": 3671,
      "ode": 3672,
      "oons": 3673,
      "pa": 3674,
      "ps": 3675,
      "pose": 3676,
      "pting": 3677,
      "public": 3678,
      "poll": 3679,
      "paper": 3680,
      "produc": 3681,
      "pseries": 3682,
      "ri": 3683,
      "rin": 3684,
      "rit": 3685,
      "rap": 3686,
      "rim": 3687,
      "ram": 3688,
      "rif": 3689,
      "ria": 3690,
      "rant": 3691,
      "rors": 3692,
      "rint": 3693,
      "russ": 3694,
      "rums": 3695,
      "sc": 3696,
      "sk": 3697,
      "ss": 3698,
      "sw": 3699,
      "sen": 3700,
      "sol": 3701,
      "sim": 3702,
      "squ": 3703,
      "sour": 3704,
      "size": 3705,
      "source": 3706,
      "self": 3707,
      "saf": 3708,
      "school": 3709,
      "summer": 3710,
      "sellers": 3711,
      "tc": 3712,
      "tion": 3713,
      "test": 3714,
      "tual": 3715,
      "tty": 3716,
      "taking": 3717,
      "tling": 3718,
      "turned": 3719,
      "tee": 3720,
      "uy": 3721,
      "ued": 3722,
      "uate": 3723,
      "uations": 3724,
      "uise": 3725,
      "uff": 3726,
      "uits": 3727,
      "uelling": 3728,
      "vision": 3729,
      "ville": 3730,
      "wl": 3731,
      "ww": 3732,
      "will": 3733,
      "with": 3734,
      "ways": 3735,
      "woman": 3736,
      "yz": 3737,
      "yad": 3738,
      "yard": 3739,
      "yware": 3740,
      "yhoo": 3741,
      "zz": 3742,
      "zil": 3743,
      "zone": 3744,
      "zling": 3745,
      "Ġill": 3746,
      "Ġip": 3747,
      "Ġuc": 3748,
      "Ġ.\\\\": 3749,
      "Ġtv": 3750,
      "Ġtel": 3751,
      "Ġtam": 3752,
      "Ġtum": 3753,
      "Ġties": 3754,
      "Ġtack": 3755,
      "Ġtall": 3756,
      "Ġtund": 3757,
      "Ġtax": 3758,
      "Ġtons": 3759,
      "Ġtests": 3760,
      "Ġtank": 3761,
      "Ġast": 3762,
      "Ġaud": 3763,
      "Ġaims": 3764,
      "Ġaward": 3765,
      "iners": 3766,
      "ints": 3767,
      "inter": 3768,
      "inem": 3769,
      "inning": 3770,
      "income": 3771,
      "Ġson": 3772,
      "Ġsed": 3773,
      "Ġsil": 3774,
      "Ġsam": 3775,
      "Ġsch": 3776,
      "Ġsold": 3777,
      "Ġsites": 3778,
      "Ġsix": 3779,
      "eran": 3780,
      "eric": 3781,
      "erend": 3782,
      "ernand": 3783,
      "Ġthor": 3784,
      "Ġthread": 3785,
      "onic": 3786,
      "only": 3787,
      "onard": 3788,
      "onder": 3789,
      "reh": 3790,
      "rem": 3791,
      "reds": 3792,
      "Ġcow": 3793,
      "Ġcop": 3794,
      "Ġcnet": 3795,
      "Ġcities": 3796,
      "Ġcuts": 3797,
      "Ġcenter": 3798,
      "Ġcases": 3799,
      "Ġcateg": 3800,
      "Ġcassini": 3801,
      "Ġcinem": 3802,
      "orus": 3803,
      "order": 3804,
      "oracle": 3805,
      "esh": 3806,
      "escale": 3807,
      "ano": 3808,
      "anation": 3809,
      "angle": 3810,
      "angh": 3811,
      "another": 3812,
      "atia": 3813,
      "atives": 3814,
      "atoes": 3815,
      "Ġfal": 3816,
      "Ġfro": 3817,
      "Ġfol": 3818,
      "Ġfif": 3819,
      "Ġfare": 3820,
      "Ġfate": 3821,
      "Ġfres": 3822,
      "Ġfake": 3823,
      "Ġfash": 3824,
      "Ġfont": 3825,
      "Ġfax": 3826,
      "Ġfair": 3827,
      "Ġfix": 3828,
      "Ġfaced": 3829,
      "Ġfences": 3830,
      "Ġfernand": 3831,
      "Ġpit": 3832,
      "Ġpad": 3833,
      "Ġpim": 3834,
      "Ġpip": 3835,
      "Ġpul": 3836,
      "Ġpass": 3837,
      "Ġpets": 3838,
      "Ġpair": 3839,
      "Ġppc": 3840,
      "Ġwre": 3841,
      "Ġwro": 3842,
      "Ġwet": 3843,
      "Ġwong": 3844,
      "Ġwake": 3845,
      "Ġwood": 3846,
      "Ġwomen": 3847,
      "Ġwoman": 3848,
      "Ġok": 3849,
      "Ġot": 3850,
      "Ġoreg": 3851,
      "Ġothers": 3852,
      "Ġba": 3853,
      "Ġbi": 3854,
      "Ġbay": 3855,
      "Ġbur": 3856,
      "Ġbare": 3857,
      "Ġbell": 3858,
      "Ġboun": 3859,
      "Ġbort": 3860,
      "Ġbite": 3861,
      "Ġboy": 3862,
      "Ġbase": 3863,
      "Ġbones": 3864,
      "Ġburned": 3865,
      "Ġbomb": 3866,
      "Ġborder": 3867,
      "enn": 3868,
      "enot": 3869,
      "enry": 3870,
      "enger": 3871,
      "inger": 3872,
      "itive": 3873,
      "Ġmr": 3874,
      "Ġms": 3875,
      "Ġmes": 3876,
      "Ġming": 3877,
      "Ġmis": 3878,
      "Ġmom": 3879,
      "Ġmut": 3880,
      "Ġmoo": 3881,
      "Ġmos": 3882,
      "Ġmand": 3883,
      "Ġmine": 3884,
      "Ġmud": 3885,
      "Ġmort": 3886,
      "Ġmart": 3887,
      "Ġmike": 3888,
      "Ġmund": 3889,
      "Ġmicros": 3890,
      "Ġmaster": 3891,
      "Ġmakes": 3892,
      "Ġmcc": 3893,
      "Ġmix": 3894,
      "arity": 3895,
      "arage": 3896,
      "arno": 3897,
      "arium": 3898,
      "isf": 3899,
      "isan": 3900,
      "isory": 3901,
      "isible": 3902,
      "Ġincome": 3903,
      "aly": 3904,
      "aling": 3905,
      "alog": 3906,
      "alks": 3907,
      "alty": 3908,
      "Ġtom": 3909,
      "Ġtold": 3910,
      "Ġtopic": 3911,
      "Ġtouch": 3912,
      "Ġtown": 3913,
      "Ġtoggle": 3914,
      "Ġden": 3915,
      "Ġdou": 3916,
      "Ġdiv": 3917,
      "Ġdate": 3918,
      "Ġdial": 3919,
      "Ġdivers": 3920,
      "Ġdash": 3921,
      "Ġdold": 3922,
      "Ġdates": 3923,
      "Ġdrough": 3924,
      "Ġdaz": 3925,
      "Ġdie": 3926,
      "Ġdocks": 3927,
      "Ġdocked": 3928,
      "Ġdaemon": 3929,
      "Ġdna": 3930,
      "Ġhy": 3931,
      "Ġhor": 3932,
      "Ġhom": 3933,
      "Ġhip": 3934,
      "Ġhall": 3935,
      "Ġhong": 3936,
      "Ġhend": 3937,
      "Ġhue": 3938,
      "Ġholog": 3939,
      "Ġhost": 3940,
      "Ġhomers": 3941,
      "Ġhosp": 3942,
      "Ġhype": 3943,
      "Ġhang": 3944,
      "Ġhimself": 3945,
      "Ġhuy": 3946,
      "Ġhenry": 3947,
      "roving": 3948,
      "rozone": 3949,
      "iced": 3950,
      "icts": 3951,
      "icult": 3952,
      "icted": 3953,
      "icked": 3954,
      "icism": 3955,
      "lee": 3956,
      "lets": 3957,
      "lement": 3958,
      "leged": 3959,
      "Ġanth": 3960,
      "sting": 3961,
      "station": 3962,
      "ouds": 3963,
      "Ġnest": 3964,
      "Ġnak": 3965,
      "Ġnames": 3966,
      "Ġnino": 3967,
      "Ġnaval": 3968,
      "Ġnecess": 3969,
      "Ġled": 3970,
      "Ġlind": 3971,
      "Ġlock": 3972,
      "Ġlows": 3973,
      "Ġlond": 3974,
      "Ġlives": 3975,
      "Ġlocks": 3976,
      "Ġlights": 3977,
      "ayers": 3978,
      "Ġgp": 3979,
      "Ġgent": 3980,
      "Ġgul": 3981,
      "Ġgard": 3982,
      "Ġgann": 3983,
      "Ġgond": 3984,
      "Ġground": 3985,
      "Ġgiving": 3986,
      "Ġgains": 3987,
      "Ġgolf": 3988,
      "Ġgartner": 3989,
      "Ġgarage": 3990,
      "omo": 3991,
      "oms": 3992,
      "omach": 3993,
      "omari": 3994,
      "Ġreop": 3995,
      "Ġrepl": 3996,
      "Ġreds": 3997,
      "Ġreef": 3998,
      "Ġreverse": 3999,
      "Ġrejected": 4000,
      "acity": 4001,
      "acular": 4002,
      "Ġea": 4003,
      "Ġeith": 4004,
      "Ġeast": 4005,
      "Ġeights": 4006,
      "ety": 4007,
      "etic": 4008,
      "etts": 4009,
      "etail": 4010,
      "ether": 4011,
      "asef": 4012,
      "uting": 4013,
      "utants": 4014,
      "ila": 4015,
      "iled": 4016,
      "ilot": 4017,
      "enth": 4018,
      "ention": 4019,
      "entary": 4020,
      "entee": 4021,
      "Ġstun": 4022,
      "Ġstry": 4023,
      "Ġstings": 4024,
      "Ġstages": 4025,
      "Ġstalled": 4026,
      "Ġstellar": 4027,
      "Ġstomach": 4028,
      "ecurity": 4029,
      "ecmath": 4030,
      "under": 4031,
      "unction": 4032,
      "Ġforget": 4033,
      "Ġforged": 4034,
      "uration": 4035,
      "urning": 4036,
      "iders": 4037,
      "idays": 4038,
      "idge": 4039,
      "idents": 4040,
      "that": 4041,
      "this": 4042,
      "there": 4043,
      "ollo": 4044,
      "olved": 4045,
      "olina": 4046,
      "ado": 4047,
      "aded": 4048,
      "adel": 4049,
      "adden": 4050,
      "adolf": 4051,
      "aduate": 4052,
      "used": 4053,
      "usion": 4054,
      "usive": 4055,
      "usetts": 4056,
      "iger": 4057,
      "igence": 4058,
      "apter": 4059,
      "apling": 4060,
      "applic": 4061,
      "imates": 4062,
      "immed": 4063,
      "Ġitunes": 4064,
      "ama": 4065,
      "amer": 4066,
      "amos": 4067,
      "amatically": 4068,
      "irty": 4069,
      "irie": 4070,
      "iraq": 4071,
      "irinc": 4072,
      "lyle": 4073,
      "ewalks": 4074,
      "Ġrum": 4075,
      "Ġrail": 4076,
      "Ġrab": 4077,
      "Ġramp": 4078,
      "Ġriley": 4079,
      "Ġrwandan": 4080,
      "Ġrhinos": 4081,
      "Ġrsqu": 4082,
      "Ġrarity": 4083,
      "Ġbeating": 4084,
      "Ġbears": 4085,
      "ching": 4086,
      "chair": 4087,
      "china": 4088,
      "chandra": 4089,
      "terr": 4090,
      "terns": 4091,
      "ternal": 4092,
      "Ġpros": 4093,
      "Ġprogress": 4094,
      "Ġprohib": 4095,
      "Ġprokom": 4096,
      "Ġyield": 4097,
      "Ġvan": 4098,
      "Ġven": 4099,
      "Ġvast": 4100,
      "Ġvort": 4101,
      "Ġvoy": 4102,
      "Ġvib": 4103,
      "Ġvecmath": 4104,
      "Ġspan": 4105,
      "Ġspoo": 4106,
      "Ġspect": 4107,
      "Ġspread": 4108,
      "Ġsprint": 4109,
      "Ġwhom": 4110,
      "Ġwhose": 4111,
      "osition": 4112,
      "Ġjul": 4113,
      "Ġjour": 4114,
      "Ġjails": 4115,
      "Ġjump": 4116,
      "Ġjaval": 4117,
      "Ġjeffrey": 4118,
      "Ġjarno": 4119,
      "earing": 4120,
      "veris": 4121,
      "verted": 4122,
      "cepted": 4123,
      "estin": 4124,
      "Ġshown": 4125,
      "Ġshock": 4126,
      "Ġshots": 4127,
      "oping": 4128,
      "opec": 4129,
      "opran": 4130,
      "Ġcome": 4131,
      "Ġcommit": 4132,
      "Ġexag": 4133,
      "Ġexhib": 4134,
      "illo": 4135,
      "illiant": 4136,
      "keef": 4137,
      "Ġasks": 4138,
      "Ġasked": 4139,
      "ipment": 4140,
      "iption": 4141,
      "Ġchem": 4142,
      "Ġchance": 4143,
      "Ġchave": 4144,
      "Ġchina": 4145,
      "Ġcheney": 4146,
      "Ġchoice": 4147,
      "Ġchapter": 4148,
      "Ġatos": 4149,
      "upid": 4150,
      "ulace": 4151,
      "ifinals": 4152,
      "anda": 4153,
      "ander": 4154,
      "anding": 4155,
      "andals": 4156,
      "andled": 4157,
      "emy": 4158,
      "ember": 4159,
      "Ġapmf": 4160,
      "Ġapollo": 4161,
      "Ġbypass": 4162,
      "Ġalter": 4163,
      "Ġalone": 4164,
      "Ġalike": 4165,
      "Ġalread": 4166,
      "Ġalask": 4167,
      "Ġalien": 4168,
      "Ġalways": 4169,
      "Ġalleged": 4170,
      "Ġalamos": 4171,
      "umst": 4172,
      "umped": 4173,
      "rained": 4174,
      "usters": 4175,
      "quit": 4176,
      "quired": 4177,
      "quarium": 4178,
      "Ġnewly": 4179,
      "Ġnewcast": 4180,
      "Ġareas": 4181,
      "ared": 4182,
      "Ġconsp": 4183,
      "Ġconcl": 4184,
      "Ġconserv": 4185,
      "Ġconnections": 4186,
      "Ġconverted": 4187,
      "inez": 4188,
      "ively": 4189,
      "ags": 4190,
      "agan": 4191,
      "agle": 4192,
      "agers": 4193,
      "agination": 4194,
      "ista": 4195,
      "istic": 4196,
      "isters": 4197,
      "istry": 4198,
      "Ġunw": 4199,
      "Ġunse": 4200,
      "Ġunix": 4201,
      "elligence": 4202,
      "Ġcomprom": 4203,
      "Ġcomplic": 4204,
      "Ġcomplex": 4205,
      "Ġcomposition": 4206,
      "ocking": 4207,
      "ughing": 4208,
      "Ġworry": 4209,
      "Ġexpos": 4210,
      "Ġexpand": 4211,
      "Ġexport": 4212,
      "Ġexpress": 4213,
      "Ġweed": 4214,
      "Ġwealth": 4215,
      "Ġoffset": 4216,
      "ograp": 4217,
      "ounder": 4218,
      "Ġken": 4219,
      "Ġkong": 4220,
      "Ġknew": 4221,
      "Ġkah": 4222,
      "Ġkirinc": 4223,
      "research": 4224,
      "rescu": 4225,
      "Ġclash": 4226,
      "Ġclaria": 4227,
      "Ġclusters": 4228,
      "common": 4229,
      "ecting": 4230,
      "Ġlee": 4231,
      "Ġlevel": 4232,
      "Ġleague": 4233,
      "Ġleonard": 4234,
      "iability": 4235,
      "Ġsaved": 4236,
      "Ġhaz": 4237,
      "Ġhail": 4238,
      "sey": 4239,
      "Ġadult": 4240,
      "Ġadults": 4241,
      "india": 4242,
      "indians": 4243,
      "ortel": 4244,
      "ortium": 4245,
      "Ġmoder": 4246,
      "Ġusa": 4247,
      "Ġuses": 4248,
      "Ġusual": 4249,
      "Ġusually": 4250,
      "ubs": 4251,
      "Ġenh": 4252,
      "Ġends": 4253,
      "Ġscot": 4254,
      "Ġscrim": 4255,
      "Ġheav": 4256,
      "Ġheats": 4257,
      "Ġorange": 4258,
      "arty": 4259,
      "artment": 4260,
      "Ġsean": 4261,
      "Ġseek": 4262,
      "Ġsevent": 4263,
      "Ġseems": 4264,
      "Ġ28": 4265,
      "Ġ29": 4266,
      "Ġteach": 4267,
      "Ġplanner": 4268,
      "spam": 4269,
      "spot": 4270,
      "speed": 4271,
      "izz": 4272,
      "izens": 4273,
      "izations": 4274,
      "Ġgoods": 4275,
      "Ġwilliam": 4276,
      "Ġmark": 4277,
      "Ġintrod": 4278,
      "Ġrose": 4279,
      "Ġroll": 4280,
      "Ġupcoming": 4281,
      "Ġupdated": 4282,
      "Ġquiet": 4283,
      "Ġquality": 4284,
      "Ġaccepted": 4285,
      "Ġacquired": 4286,
      "Ġcanada": 4287,
      "Ġcanadian": 4288,
      "Ġcancels": 4289,
      "Ġdisgust": 4290,
      "Ġneerg": 4291,
      "Ġallow": 4292,
      "Ġallerg": 4293,
      "Ġallowing": 4294,
      "Ġopt": 4295,
      "ends": 4296,
      "endence": 4297,
      "Ġtries": 4298,
      "Ġtrading": 4299,
      "Ġaffect": 4300,
      "Ġouter": 4301,
      "Ġoutput": 4302,
      "Ġoutside": 4303,
      "Ġearned": 4304,
      "Ġlafrent": 4305,
      "Ġlaughing": 4306,
      "uctures": 4307,
      "Ġoverst": 4308,
      "Ġoverall": 4309,
      "aving": 4310,
      "avoid": 4311,
      "Ġaging": 4312,
      "Ġinterim": 4313,
      "Ġinterrup": 4314,
      "ache": 4315,
      "achusetts": 4316,
      "ysts": 4317,
      "Ġphase": 4318,
      "Ġphys": 4319,
      "Ġimf": 4320,
      "Ġimm": 4321,
      "Ġimplic": 4322,
      "Ġimagination": 4323,
      "Ġsecure": 4324,
      "Ġprison": 4325,
      "ensing": 4326,
      "ensity": 4327,
      "Ġdoor": 4328,
      "Ġresur": 4329,
      "Ġresolution": 4330,
      "Ġrescue": 4331,
      "Ġresidents": 4332,
      "msblast": 4333,
      "ansion": 4334,
      "Ġflies": 4335,
      "Ġgov": 4336,
      "Ġapprec": 4337,
      "ept": 4338,
      "ependence": 4339,
      "they": 4340,
      "theast": 4341,
      "forms": 4342,
      "oying": 4343,
      "Ġsunsh": 4344,
      "Ġsunset": 4345,
      "Ġsunlight": 4346,
      "lico": 4347,
      "Ġindones": 4348,
      "Ġindex": 4349,
      "Ġindians": 4350,
      "Ġindividual": 4351,
      "Ġindependence": 4352,
      "urnomo": 4353,
      "Ġserving": 4354,
      "ibm": 4355,
      "Ġarr": 4356,
      "Ġarms": 4357,
      "Ġarray": 4358,
      "Ġarmed": 4359,
      "Ġarizon": 4360,
      "Ġthanks": 4361,
      "Ġfridays": 4362,
      "Ġbracing": 4363,
      "Ġbrighter": 4364,
      "Ġbrilliant": 4365,
      "Ġnote": 4366,
      "Ġshowing": 4367,
      "conf": 4368,
      "Ġ30": 4369,
      "Ġtwins": 4370,
      "Ġcold": 4371,
      "Ġcolors": 4372,
      "Ġpresent": 4373,
      "Ġprescr": 4374,
      "Ġpreseason": 4375,
      "Ġwhois": 4376,
      "Ġplayed": 4377,
      "abb": 4378,
      "ables": 4379,
      "aboration": 4380,
      "Ġstarter": 4381,
      "Ġpeers": 4382,
      "Ġpeak": 4383,
      "Ġprev": 4384,
      "Ġmaneu": 4385,
      "Ġmanila": 4386,
      "Ġcontam": 4387,
      "Ġworlds": 4388,
      "Ġworldwide": 4389,
      "Ġamount": 4390,
      "Ġamnesty": 4391,
      "Ġamanda": 4392,
      "aths": 4393,
      "athan": 4394,
      "Ġnothing": 4395,
      "Ġloos": 4396,
      "action": 4397,
      "Ġyourself": 4398,
      "Ġexpert": 4399,
      "Ġexperiences": 4400,
      "Ġaccur": 4401,
      "Ġaccused": 4402,
      "getting": 4403,
      "Ġsurge": 4404,
      "Ġsurged": 4405,
      "Ġsurprise": 4406,
      "Ġsurface": 4407,
      "ancient": 4408,
      "Ġparticip": 4409,
      "Ġdriven": 4410,
      "Ġdramatically": 4411,
      "Ġregisters": 4412,
      "Ġreturning": 4413,
      "Ġolymp": 4414,
      "Ġstrong": 4415,
      "Ġstruck": 4416,
      "Ġstripped": 4417,
      "Ġstrateg": 4418,
      "Ġstructures": 4419,
      "ossible": 4420,
      "Ġearthqu": 4421,
      "Ġearthgra": 4422,
      "Ġ''": 4423,
      "Ġkept": 4424,
      "Ġkevin": 4425,
      "Ġslows": 4426,
      "Ġsalv": 4427,
      "Ġsearching": 4428,
      "Ġcars": 4429,
      "Ġcarolina": 4430,
      "Ġjoin": 4431,
      "Ġjoint": 4432,
      "Ġjoining": 4433,
      "Ġweekend": 4434,
      "good": 4435,
      "netta": 4436,
      "phelps": 4437,
      "phoon": 4438,
      "pering": 4439,
      "Ġsatisf": 4440,
      "Ġfeb": 4441,
      "encies": 4442,
      "Ġstret": 4443,
      "Ġfinances": 4444,
      "Ġrealize": 4445,
      "Ġstudies": 4446,
      "Ġjustin": 4447,
      "ffic": 4448,
      "Ġsetback": 4449,
      "Ġsettles": 4450,
      "Ġdesc": 4451,
      "Ġengineer": 4452,
      "Ġtrout": 4453,
      "Ġtrojan": 4454,
      "Ġpermission": 4455,
      "Ġperfect": 4456,
      "Ġmeteors": 4457,
      "Ġmethod": 4458,
      "monster": 4459,
      "when": 4460,
      "Ġmissing": 4461,
      "Ġmissions": 4462,
      "Ġconsole": 4463,
      "Ġconsortium": 4464,
      "bea": 4465,
      "beat": 4466,
      "Ġcrack": 4467,
      "Ġcracks": 4468,
      "Ġcrashes": 4469,
      "Ġfinding": 4470,
      "Ġfindings": 4471,
      "Ġwarn": 4472,
      "Ġwarns": 4473,
      "letters": 4474,
      "Ġlogging": 4475,
      "Ġruntime": 4476,
      "Ġexplore": 4477,
      "Ġexploration": 4478,
      "Ġexplanation": 4479,
      "heat": 4480,
      "web": 4481,
      "Ġ49": 4482,
      "Ġsolo": 4483,
      "Ġsolve": 4484,
      "Ġsolved": 4485,
      "Ġparity": 4486,
      "Ġparade": 4487,
      "Ġparson": 4488,
      "Ġparkins": 4489,
      "Ġpersist": 4490,
      "Ġbuilding": 4491,
      "Ġbuzz": 4492,
      "Ġlift": 4493,
      "Ġgener": 4494,
      "Ġgeneration": 4495,
      "Ġreleases": 4496,
      "Ġstarting": 4497,
      "Ġstarted": 4498,
      "Ġproduce": 4499,
      "ularly": 4500,
      "Ġuniverse": 4501,
      "Ġauth": 4502,
      "Ġautom": 4503,
      "Ġauctioneer": 4504,
      "Ġlongtime": 4505,
      "Ġattention": 4506,
      "Ġdefense": 4507,
      "Ġlines": 4508,
      "Ġofficially": 4509,
      "Ġcorporation": 4510,
      "bridge": 4511,
      "clk": 4512,
      "class": 4513,
      "claria": 4514,
      "clouds": 4515,
      "jectory": 4516,
      "Ġ60": 4517,
      "Ġ65": 4518,
      "Ġ69": 4519,
      "Ġ600": 4520,
      "Ġediting": 4521,
      "Ġairlif": 4522,
      "Ġsenate": 4523,
      "Ġsense": 4524,
      "Ġsender": 4525,
      "Ġseniors": 4526,
      "Ġpopulation": 4527,
      "Ġpopulace": 4528,
      "Ġinfection": 4529,
      "Ġlowers": 4530,
      "Ġgrap": 4531,
      "Ġgrim": 4532,
      "Ġgraduate": 4533,
      "Ġspecific": 4534,
      "Ġeconomic": 4535,
      "Ġacting": 4536,
      "Ġactivity": 4537,
      "Ġsometime": 4538,
      "Ġpatents": 4539,
      "Ġpatterns": 4540,
      "Ġnearby": 4541,
      "Ġrefug": 4542,
      "Ġrefuge": 4543,
      "Ġrefuelling": 4544,
      "Ġreferend": 4545,
      "Ġrepair": 4546,
      "vernment": 4547,
      "Ġrock": 4548,
      "Ġrocky": 4549,
      "minent": 4550,
      "minute": 4551,
      "versial": 4552,
      "Ġswell": 4553,
      "Ġswarm": 4554,
      "Ġsells": 4555,
      "Ġselling": 4556,
      "Ġsubst": 4557,
      "Ġcells": 4558,
      "Ġfreescale": 4559,
      "Ġforest": 4560,
      "Ġpoor": 4561,
      "Ġwinnick": 4562,
      "Ġobservers": 4563,
      "Ġbanking": 4564,
      "Ġbangkok": 4565,
      "Ġmyth": 4566,
      "Ġmedal": 4567,
      "Ġmedium": 4568,
      "Ġdecade": 4569,
      "Ġelections": 4570,
      "Ġissued": 4571,
      "Ġvirtual": 4572,
      "Ġshortage": 4573,
      "Ġshortfall": 4574,
      "Ġ199": 4575,
      "Ġ1930": 4576,
      "Ġadvisory": 4577,
      "Ġoperations": 4578,
      "Ġoperator": 4579,
      "Ġimproving": 4580,
      "Ġimplement": 4581,
      "Ġimpossible": 4582,
      "Ġbroadly": 4583,
      "cracking": 4584,
      "exp": 4585,
      "except": 4586,
      "government": 4587,
      "mozilla": 4588,
      "Ġcreep": 4589,
      "Ġcountdown": 4590,
      "Ġfiling": 4591,
      "Ġdelivers": 4592,
      "Ġglobe": 4593,
      "Ġrecor": 4594,
      "Ġrecording": 4595,
      "Ġprovider": 4596,
      "Ġvisiting": 4597,
      "Ġclaw": 4598,
      "Ġseeking": 4599,
      "Ġappleby": 4600,
      "Ġretailer": 4601,
      "Ġsupercomp": 4602,
      "Ġsupercol": 4603,
      "Ġsuperpower": 4604,
      "Ġsuperfund": 4605,
      "nson": 4606,
      "today": 4607,
      "Ġiran": 4608,
      "Ġenterprise": 4609,
      "Ġcapabilities": 4610,
      "Ġcourt": 4611,
      "Ġcourts": 4612,
      "Ġcreatures": 4613,
      "Ġpolic": 4614,
      "Ġreader": 4615,
      "Ġreaders": 4616,
      "Ġreaching": 4617,
      "Ġstatus": 4618,
      "Ġformed": 4619,
      "Ġrananim": 4620,
      "Ġconflic": 4621,
      "Ġconfidence": 4622,
      "Ġindustries": 4623,
      "Ġartisan": 4624,
      "blaster": 4625,
      "blocks": 4626,
      "gests": 4627,
      "ioveris": 4628,
      "Ġterra": 4629,
      "Ġbelow": 4630,
      "Ġbiggest": 4631,
      "Ġbook": 4632,
      "Ġboot": 4633,
      "Ġmuseum": 4634,
      "Ġhurt": 4635,
      "elson": 4636,
      "ecutive": 4637,
      "Ġpropose": 4638,
      "Ġpropuls": 4639,
      "Ġvideos": 4640,
      "Ġassets": 4641,
      "Ġclassroom": 4642,
      "Ġdisputes": 4643,
      "Ġincrease": 4644,
      "Ġcosts": 4645,
      "Ġcostly": 4646,
      "Ġkeeps": 4647,
      "Ġcraiglist": 4648,
      "awa": 4649,
      "mitory": 4650,
      "prises": 4651,
      "priced": 4652,
      "years": 4653,
      "Ġtraffic": 4654,
      "Ġsimulation": 4655,
      "reading": 4656,
      "Ġcurbs": 4657,
      "Ġfamily": 4658,
      "Ġpleasing": 4659,
      "Ġwrites": 4660,
      "Ġbars": 4661,
      "Ġmassachusetts": 4662,
      "Ġheard": 4663,
      "Ġglass": 4664,
      "Ġshark": 4665,
      "Ġsharp": 4666,
      "Ġaddicts": 4667,
      "Ġpresidential": 4668,
      "Ġslowdown": 4669,
      "Ġinitially": 4670,
      "Ġdifficult": 4671,
      "Ġtitle": 4672,
      "Ġtitles": 4673,
      "Ġtales": 4674,
      "Ġsyria": 4675,
      "Ġsugar": 4676,
      "Ġsuggests": 4677,
      "Ġceasef": 4678,
      "Ġfreeing": 4679,
      "Ġpenalty": 4680,
      "Ġpennetta": 4681,
      "Ġpurple": 4682,
      "Ġpurpose": 4683,
      "Ġpackage": 4684,
      "Ġbreaking": 4685,
      "Ġbenhamou": 4686,
      "Ġmemory": 4687,
      "Ġinstall": 4688,
      "Ġinstitute": 4689,
      "Ġinstrument": 4690,
      "ionally": 4691,
      "Ġloaiz": 4692,
      "Ġlosing": 4693,
      "Ġstorms": 4694,
      "Ġdeepest": 4695,
      "Ġ2015": 4696,
      "Ġapprove": 4697,
      "Ġapproves": 4698,
      "Ġjohnson": 4699,
      "Ġinvestment": 4700,
      "Ġzip": 4701,
      "Ġzone": 4702,
      "Ġsigns": 4703,
      "Ġsigned": 4704,
      "Ġpotatoes": 4705,
      "Ġbrains": 4706,
      "Ġbraves": 4707,
      "Ġbrazil": 4708,
      "Ġmichel": 4709,
      "Ġanalyz": 4710,
      "Ġanalysts": 4711,
      "Ġlicensing": 4712,
      "Ġlocusts": 4713,
      "Ġlightning": 4714,
      "Ġrelief": 4715,
      "Ġbehav": 4716,
      "Ġspotted": 4717,
      "Ġcharacter": 4718,
      "Ġchildhood": 4719,
      "Ġkorean": 4720,
      "Ġlearning": 4721,
      "Ġtransmissions": 4722,
      "Ġviolate": 4723,
      "boardroom": 4724,
      "Ġpowerful": 4725,
      "Ġhurricanes": 4726,
      "column": 4727,
      "capacity": 4728,
      "point": 4729,
      "setia": 4730,
      "uelans": 4731,
      "Ġtypical": 4732,
      "Ġtyrannosaurus": 4733,
      "Ġtyphoon": 4734,
      "Ġcambridge": 4735,
      "Ġclearer": 4736,
      "Ġfalls": 4737,
      "Ġpalmone": 4738,
      "Ġwalter": 4739,
      "Ġbuddh": 4740,
      "Ġmainfr": 4741,
      "Ġdark": 4742,
      "Ġdetect": 4743,
      "Ġhunger": 4744,
      "Ġhungarian": 4745,
      "Ġhardware": 4746,
      "Ġreveals": 4747,
      "Ġeffects": 4748,
      "Ġradiation": 4749,
      "Ġpromise": 4750,
      "Ġpromised": 4751,
      "Ġprospects": 4752,
      "Ġprogramme": 4753,
      "Ġvacation": 4754,
      "Ġcloned": 4755,
      "Ġcloser": 4756,
      "Ġordered": 4757,
      "Ġorbiter": 4758,
      "Ġtracking": 4759,
      "Ġfloat": 4760,
      "Ġcontrib": 4761,
      "Ġcontinues": 4762,
      "Ġamazingly": 4763,
      "Ġviews": 4764,
      "Ġassociation": 4765,
      "Ġassociate": 4766,
      "Ġassociated": 4767,
      "Ġpleaded": 4768,
      "Ġsuccessfully": 4769,
      "generation": 4770,
      "madison": 4771,
      "madden": 4772,
      "madillo": 4773,
      "Ġestate": 4774,
      "Ġestimates": 4775,
      "Ġsemifinals": 4776,
      "Ġfighters": 4777,
      "Ġfailed": 4778,
      "Ġfirewall": 4779,
      "Ġpinoy": 4780,
      "Ġposition": 4781,
      "Ġpositions": 4782,
      "Ġwallpaper": 4783,
      "Ġwatching": 4784,
      "Ġwatchdog": 4785,
      "Ġmatters": 4786,
      "Ġmessenger": 4787,
      "Ġdolphins": 4788,
      "Ġharbor": 4789,
      "Ġhappen": 4790,
      "Ġrequest": 4791,
      "Ġrequires": 4792,
      "Ġequipment": 4793,
      "Ġsteam": 4794,
      "Ġsteps": 4795,
      "Ġproperties": 4796,
      "Ġchanged": 4797,
      "Ġcheck": 4798,
      "Ġchannels": 4799,
      "Ġkilling": 4800,
      "Ġorganization": 4801,
      "Ġorganizations": 4802,
      "Ġinteresting": 4803,
      "Ġappears": 4804,
      "Ġmanagement": 4805,
      "Ġpartnership": 4806,
      "Ġinventor": 4807,
      "Ġunderstands": 4808,
      "Ġinfravio": 4809,
      "Ġemployer": 4810,
      "Ġemployees": 4811,
      "Ġterrorists": 4812,
      "Ġproposes": 4813,
      "Ġcurrently": 4814,
      "Ġlawsuit": 4815,
      "Ġlawsuits": 4816,
      "Ġtargeting": 4817,
      "Ġsudanese": 4818,
      "locate": 4819,
      "locator": 4820,
      "offer": 4821,
      "office": 4822,
      "technology": 4823,
      "world": 4824,
      "Ġpioneered": 4825,
      "Ġossetia": 4826,
      "Ġbunny": 4827,
      "Ġmachines": 4828,
      "Ġdirection": 4829,
      "Ġhoping": 4830,
      "Ġhopkins": 4831,
      "Ġanimal": 4832,
      "Ġanimals": 4833,
      "Ġladen": 4834,
      "Ġstopped": 4835,
      "Ġcommunity": 4836,
      "Ġconditions": 4837,
      "Ġweapons": 4838,
      "Ġupgrade": 4839,
      "Ġupgrades": 4840,
      "Ġphoto": 4841,
      "Ġphotograp": 4842,
      "Ġarchive": 4843,
      "Ġarchived": 4844,
      "Ġcollaboration": 4845,
      "Ġsoaring": 4846,
      "Ġregulatory": 4847,
      "Ġinvolve": 4848,
      "Ġcolumnist": 4849,
      "Ġemergencies": 4850,
      "Ġprospectus": 4851,
      "Ġcircuit": 4852,
      "Ġcircumst": 4853,
      "Ġmystery": 4854,
      "Ġmysterious": 4855,
      "Ġchallenge": 4856,
      "canadian": 4857,
      "founded": 4858,
      "founders": 4859,
      "hungarian": 4860,
      "meter": 4861,
      "Ġeric": 4862,
      "Ġtrees": 4863,
      "Ġtunn": 4864,
      "Ġsituations": 4865,
      "Ġsidewalks": 4866,
      "Ġcatalog": 4867,
      "Ġcitadel": 4868,
      "Ġcitizens": 4869,
      "Ġcroatia": 4870,
      "Ġcrossed": 4871,
      "espn": 4872,
      "Ġflew": 4873,
      "Ġpaul": 4874,
      "Ġoctober": 4875,
      "Ġbrowser": 4876,
      "Ġbosses": 4877,
      "Ġmenace": 4878,
      "Ġmidst": 4879,
      "Ġinspire": 4880,
      "Ġdorman": 4881,
      "Ġdormitory": 4882,
      "Ġgeode": 4883,
      "Ġgaining": 4884,
      "Ġremember": 4885,
      "Ġrent": 4886,
      "Ġrenault": 4887,
      "Ġreceiving": 4888,
      "Ġrestrict": 4889,
      "Ġrestricted": 4890,
      "Ġrethinks": 4891,
      "Ġrethinking": 4892,
      "acteria": 4893,
      "Ġstraight": 4894,
      "Ġvalue": 4895,
      "Ġvictor": 4896,
      "Ġvictory": 4897,
      "Ġexamples": 4898,
      "Ġchimps": 4899,
      "Ġdepth": 4900,
      "Ġdepartment": 4901,
      "Ġadopted": 4902,
      "Ġtelevision": 4903,
      "Ġabsence": 4904,
      "Ġabsentee": 4905,
      "Ġintroduces": 4906,
      "Ġintroduced": 4907,
      "Ġroadblocks": 4908,
      "Ġdisease": 4909,
      "Ġdiseases": 4910,
      "Ġneighboring": 4911,
      "Ġflaws": 4912,
      "Ġappeal": 4913,
      "Ġappeared": 4914,
      "Ġmeasure": 4915,
      "Ġeventually": 4916,
      "Ġparticles": 4917,
      "Ġparticularly": 4918,
      "Ġfeeling": 4919,
      "Ġpowerschool": 4920,
      "Ġconfiguration": 4921,
      "Ġblacklisting": 4922,
      "Ġblacklisted": 4923,
      "Ġsuffered": 4924,
      "Ġcelebration": 4925,
      "Ġpurchased": 4926,
      "Ġhalfway": 4927,
      "Ġeffective": 4928,
      "Ġenvironmentalists": 4929,
      "Ġvulnerable": 4930,
      "299": 4931,
      "?!?!": 4932,
      "budapest": 4933,
      "holds": 4934,
      "japanese": 4935,
      "natural": 4936,
      "obby": 4937,
      "ovo": 4938,
      "pretty": 4939,
      "watchers": 4940,
      "Ġeserver": 4941,
      "Ġentry": 4942,
      "Ġveget": 4943,
      "Ġtonight": 4944,
      "Ġtaps": 4945,
      "Ġtahoe": 4946,
      "Ġsociety": 4947,
      "Ġcouch": 4948,
      "Ġcausing": 4949,
      "atoday": 4950,
      "Ġfigures": 4951,
      "Ġfavor": 4952,
      "Ġfunding": 4953,
      "Ġfossil": 4954,
      "Ġpraise": 4955,
      "Ġportal": 4956,
      "Ġpictures": 4957,
      "Ġballoons": 4958,
      "enza": 4959,
      "Ġmorning": 4960,
      "Ġmigrated": 4961,
      "Ġmyself": 4962,
      "Ġdamage": 4963,
      "Ġdrawn": 4964,
      "Ġdollars": 4965,
      "Ġdinosaur": 4966,
      "Ġhonor": 4967,
      "Ġheld": 4968,
      "Ġhooked": 4969,
      "storage": 4970,
      "study": 4971,
      "Ġrenewed": 4972,
      "Ġstayed": 4973,
      "Ġvessel": 4974,
      "Ġvendors": 4975,
      "Ġjonathan": 4976,
      "Ġexceptions": 4977,
      "Ġatlantic": 4978,
      "Ġconstruction": 4979,
      "Ġdeployed": 4980,
      "Ġunhandled": 4981,
      "Ġunleashing": 4982,
      "Ġunveils": 4983,
      "Ġoffshore": 4984,
      "Ġensure": 4985,
      "Ġtextile": 4986,
      "Ġintegr": 4987,
      "Ġaccomplish": 4988,
      "Ġalligators": 4989,
      "Ġoptimization": 4990,
      "Ġlauran": 4991,
      "Ġoverture": 4992,
      "Ġphenomenon": 4993,
      "Ġimportant": 4994,
      "Ġdoctor": 4995,
      "Ġdescribed": 4996,
      "Ġnormally": 4997,
      "Ġattempt": 4998,
      "britain": 4999
    },
    "merges": [
      [
        "Ġ",
        "t"
      ],
      [
        "Ġ",
        "a"
      ],
      [
        "i",
        "n"
      ],
      [
        "Ġ",
        "s"
      ],
      [
        "e",
        "r"
      ],
      [
        "Ġt",
        "h"
      ],
      [
        "o",
        "n"
      ],
      [
        "r",
        "e"
      ],
      [
        "Ġth",
        "e"
      ],
      [
        "Ġ",
        "c"
      ],
      [
        "o",
        "r"
      ],
      [
        "e",
        "s"
      ],
      [
        "a",
        "n"
      ],
      [
        "a",
        "t"
      ],
      [
        "Ġ",
        "f"
      ],
      [
        "Ġ",
        "p"
      ],
      [
        "Ġ",
        "w"
      ],
      [
        "Ġ",
        "o"
      ],
      [
        "Ġ",
        "b"
      ],
      [
        "e",
        "n"
      ],
      [
        "in",
        "g"
      ],
      [
        "i",
        "t"
      ],
      [
        "Ġ",
        "m"
      ],
      [
        "a",
        "r"
      ],
      [
        "e",
        "d"
      ],
      [
        "i",
        "s"
      ],
      [
        "Ġ",
        "in"
      ],
      [
        "a",
        "l"
      ],
      [
        "Ġt",
        "o"
      ],
      [
        "Ġ",
        "d"
      ],
      [
        "Ġ",
        "h"
      ],
      [
        "r",
        "o"
      ],
      [
        "i",
        "c"
      ],
      [
        "Ġo",
        "f"
      ],
      [
        "l",
        "e"
      ],
      [
        "Ġa",
        "n"
      ],
      [
        "s",
        "t"
      ],
      [
        "o",
        "u"
      ],
      [
        "i",
        "on"
      ],
      [
        "Ġ",
        "n"
      ],
      [
        "Ġ",
        "l"
      ],
      [
        "a",
        "y"
      ],
      [
        "Ġ",
        "g"
      ],
      [
        "o",
        "m"
      ],
      [
        "Ġ",
        "re"
      ],
      [
        "a",
        "c"
      ],
      [
        "Ġ",
        "e"
      ],
      [
        "er",
        "s"
      ],
      [
        "e",
        "t"
      ],
      [
        "a",
        "s"
      ],
      [
        "Ġan",
        "d"
      ],
      [
        "u",
        "t"
      ],
      [
        "i",
        "l"
      ],
      [
        "e",
        "l"
      ],
      [
        "en",
        "t"
      ],
      [
        "Ġs",
        "t"
      ],
      [
        "e",
        "c"
      ],
      [
        "u",
        "n"
      ],
      [
        "Ġf",
        "or"
      ],
      [
        "u",
        "r"
      ],
      [
        "i",
        "d"
      ],
      [
        "t",
        "h"
      ],
      [
        "o",
        "l"
      ],
      [
        "Ġ",
        "on"
      ],
      [
        "o",
        "w"
      ],
      [
        "a",
        "d"
      ],
      [
        "'",
        "s"
      ],
      [
        "Ġ",
        "-"
      ],
      [
        "u",
        "s"
      ],
      [
        "i",
        "g"
      ],
      [
        "a",
        "p"
      ],
      [
        "i",
        "m"
      ],
      [
        "Ġ",
        "it"
      ],
      [
        "a",
        "m"
      ],
      [
        "i",
        "r"
      ],
      [
        "Ġ",
        "("
      ],
      [
        "v",
        "e"
      ],
      [
        "l",
        "y"
      ],
      [
        "o",
        "o"
      ],
      [
        "e",
        "w"
      ],
      [
        "t",
        "s"
      ],
      [
        "Ġ",
        "r"
      ],
      [
        "Ġb",
        "e"
      ],
      [
        "Ġ",
        "is"
      ],
      [
        "at",
        "ion"
      ],
      [
        "c",
        "h"
      ],
      [
        "t",
        "er"
      ],
      [
        "Ġp",
        "ro"
      ],
      [
        "Ġ",
        "y"
      ],
      [
        "Ġth",
        "at"
      ],
      [
        ".",
        "."
      ],
      [
        "Ġ",
        "v"
      ],
      [
        "Ġs",
        "p"
      ],
      [
        "Ġw",
        "h"
      ],
      [
        "o",
        "s"
      ],
      [
        "Ġ",
        "j"
      ],
      [
        "e",
        "ar"
      ],
      [
        "v",
        "er"
      ],
      [
        "c",
        "e"
      ],
      [
        "es",
        "t"
      ],
      [
        "o",
        "t"
      ],
      [
        "Ġs",
        "h"
      ],
      [
        "o",
        "p"
      ],
      [
        "Ġc",
        "om"
      ],
      [
        "Ġe",
        "x"
      ],
      [
        "il",
        "l"
      ],
      [
        "k",
        "e"
      ],
      [
        "Ġa",
        "s"
      ],
      [
        "i",
        "p"
      ],
      [
        "Ġc",
        "h"
      ],
      [
        "l",
        "d"
      ],
      [
        "Ġa",
        "t"
      ],
      [
        "ig",
        "h"
      ],
      [
        "o",
        "re"
      ],
      [
        "ac",
        "e"
      ],
      [
        "d",
        "ay"
      ],
      [
        "u",
        "p"
      ],
      [
        "Ġp",
        "l"
      ],
      [
        "u",
        "l"
      ],
      [
        "i",
        "f"
      ],
      [
        "an",
        "d"
      ],
      [
        "e",
        "m"
      ],
      [
        "it",
        "h"
      ],
      [
        "Ġa",
        "p"
      ],
      [
        "Ġb",
        "y"
      ],
      [
        "Ġa",
        "l"
      ],
      [
        "Ġw",
        "ith"
      ],
      [
        "\\",
        "\\"
      ],
      [
        "u",
        "m"
      ],
      [
        "r",
        "a"
      ],
      [
        "u",
        "st"
      ],
      [
        "it",
        "y"
      ],
      [
        "q",
        "u"
      ],
      [
        "Ġn",
        "ew"
      ],
      [
        "c",
        "t"
      ],
      [
        "i",
        "es"
      ],
      [
        "Ġa",
        "re"
      ],
      [
        "a",
        "re"
      ],
      [
        "Ġc",
        "on"
      ],
      [
        "in",
        "e"
      ],
      [
        "es",
        "s"
      ],
      [
        "i",
        "v"
      ],
      [
        "Ġd",
        "e"
      ],
      [
        "a",
        "g"
      ],
      [
        "is",
        "t"
      ],
      [
        "u",
        "d"
      ],
      [
        "a",
        "st"
      ],
      [
        "Ġ",
        "un"
      ],
      [
        "el",
        "l"
      ],
      [
        "Ġcom",
        "p"
      ],
      [
        "o",
        "c"
      ],
      [
        "at",
        "e"
      ],
      [
        "ro",
        "m"
      ],
      [
        "ac",
        "k"
      ],
      [
        "u",
        "g"
      ],
      [
        "Ġw",
        "or"
      ],
      [
        "Ġex",
        "p"
      ],
      [
        "f",
        "t"
      ],
      [
        "Ġw",
        "e"
      ],
      [
        "Ġf",
        "rom"
      ],
      [
        "Ġof",
        "f"
      ],
      [
        "ou",
        "ld"
      ],
      [
        "o",
        "g"
      ],
      [
        "ou",
        "n"
      ],
      [
        "Ġ",
        "k"
      ],
      [
        "re",
        "s"
      ],
      [
        "Ġc",
        "l"
      ],
      [
        "igh",
        "t"
      ],
      [
        "al",
        "l"
      ],
      [
        "ou",
        "r"
      ],
      [
        "a",
        "k"
      ],
      [
        "b",
        "le"
      ],
      [
        "..",
        "."
      ],
      [
        "c",
        "om"
      ],
      [
        "ec",
        "t"
      ],
      [
        "i",
        "al"
      ],
      [
        "Ġ",
        "le"
      ],
      [
        "Ġ-",
        "-"
      ],
      [
        "Ġit",
        "s"
      ],
      [
        "i",
        "a"
      ],
      [
        "i",
        "an"
      ],
      [
        "Ġs",
        "a"
      ],
      [
        "Ġh",
        "a"
      ],
      [
        "Ġ",
        "1"
      ],
      [
        "s",
        "e"
      ],
      [
        "Ġa",
        "d"
      ],
      [
        "in",
        "d"
      ],
      [
        "or",
        "t"
      ],
      [
        "Ġm",
        "o"
      ],
      [
        "Ġ",
        "us"
      ],
      [
        "a",
        "in"
      ],
      [
        "er",
        "e"
      ],
      [
        "u",
        "b"
      ],
      [
        "Ġ",
        "en"
      ],
      [
        "k",
        "s"
      ],
      [
        "r",
        "y"
      ],
      [
        "Ġs",
        "c"
      ],
      [
        "Ġh",
        "e"
      ],
      [
        "Ġ",
        "or"
      ],
      [
        "Ġth",
        "is"
      ],
      [
        "ar",
        "t"
      ],
      [
        "ut",
        "ers"
      ],
      [
        "Ġs",
        "e"
      ],
      [
        "g",
        "le"
      ],
      [
        "Ġ",
        "2"
      ],
      [
        "ar",
        "d"
      ],
      [
        "0",
        "0"
      ],
      [
        "Ġt",
        "e"
      ],
      [
        "Ġh",
        "as"
      ],
      [
        "Ġpl",
        "an"
      ],
      [
        "o",
        "ft"
      ],
      [
        "s",
        "p"
      ],
      [
        "Ġsp",
        "ace"
      ],
      [
        "i",
        "z"
      ],
      [
        "i",
        "ve"
      ],
      [
        "ic",
        "e"
      ],
      [
        "on",
        "g"
      ],
      [
        "Ġb",
        "ut"
      ],
      [
        "Ġg",
        "oo"
      ],
      [
        "Ġha",
        "ve"
      ],
      [
        "a",
        "il"
      ],
      [
        "d",
        "er"
      ],
      [
        "m",
        "er"
      ],
      [
        "Ġw",
        "as"
      ],
      [
        "ou",
        "t"
      ],
      [
        "m",
        "ent"
      ],
      [
        "p",
        "l"
      ],
      [
        "Ġa",
        "b"
      ],
      [
        "Ġw",
        "ill"
      ],
      [
        "Ġb",
        "l"
      ],
      [
        "Ġm",
        "ar"
      ],
      [
        "Ġin",
        "t"
      ],
      [
        "g",
        "t"
      ],
      [
        "i",
        "ent"
      ],
      [
        "l",
        "t"
      ],
      [
        "n",
        "ing"
      ],
      [
        "Ġ",
        "ro"
      ],
      [
        "Ġ",
        "up"
      ],
      [
        "Ġ",
        "qu"
      ],
      [
        "Ġa",
        "c"
      ],
      [
        "Ġc",
        "an"
      ],
      [
        "Ġd",
        "is"
      ],
      [
        "Ġs",
        "er"
      ],
      [
        "on",
        "e"
      ],
      [
        "Ġn",
        "e"
      ],
      [
        "ay",
        "s"
      ],
      [
        "om",
        "e"
      ],
      [
        "ec",
        "h"
      ],
      [
        "Ġin",
        "c"
      ],
      [
        "Ġal",
        "l"
      ],
      [
        "g",
        "e"
      ],
      [
        "k",
        "et"
      ],
      [
        "Ġo",
        "p"
      ],
      [
        "u",
        "re"
      ],
      [
        "en",
        "d"
      ],
      [
        "Ġt",
        "r"
      ],
      [
        "Ġa",
        "f"
      ],
      [
        "Ġf",
        "ir"
      ],
      [
        "Ġo",
        "ut"
      ],
      [
        "is",
        "ts"
      ],
      [
        "Ġe",
        "ar"
      ],
      [
        "ear",
        "ch"
      ],
      [
        "Ġl",
        "a"
      ],
      [
        "Ġc",
        "o"
      ],
      [
        "an",
        "y"
      ],
      [
        "Ġm",
        "ore"
      ],
      [
        "ion",
        "s"
      ],
      [
        "u",
        "ct"
      ],
      [
        "Ġ",
        "i"
      ],
      [
        "Ġt",
        "ech"
      ],
      [
        "Ġo",
        "ver"
      ],
      [
        "a",
        "v"
      ],
      [
        "Ġt",
        "im"
      ],
      [
        "Ġa",
        "g"
      ],
      [
        "Ġin",
        "ter"
      ],
      [
        "ro",
        "s"
      ],
      [
        "ac",
        "h"
      ],
      [
        "Ġsa",
        "id"
      ],
      [
        "i",
        "re"
      ],
      [
        "y",
        "st"
      ],
      [
        "Ġthe",
        "y"
      ],
      [
        "Ġp",
        "h"
      ],
      [
        "k",
        "ing"
      ],
      [
        "u",
        "e"
      ],
      [
        "Ġ",
        "im"
      ],
      [
        "Ġs",
        "ec"
      ],
      [
        "Ġp",
        "r"
      ],
      [
        "en",
        "s"
      ],
      [
        "en",
        "ce"
      ],
      [
        "Ġd",
        "o"
      ],
      [
        "ic",
        "h"
      ],
      [
        "st",
        "r"
      ],
      [
        "Ġre",
        "s"
      ],
      [
        "id",
        "e"
      ],
      [
        "ow",
        "n"
      ],
      [
        "Ġy",
        "ou"
      ],
      [
        "i",
        "ke"
      ],
      [
        "m",
        "s"
      ],
      [
        "v",
        "el"
      ],
      [
        "Ġc",
        "ould"
      ],
      [
        "an",
        "s"
      ],
      [
        "Ġf",
        "l"
      ],
      [
        "Ġg",
        "o"
      ],
      [
        "Ġon",
        "e"
      ],
      [
        "Ġy",
        "ear"
      ],
      [
        "d",
        "s"
      ],
      [
        "re",
        "uters"
      ],
      [
        "an",
        "t"
      ],
      [
        "it",
        "e"
      ],
      [
        "Ġh",
        "is"
      ],
      [
        "Ġap",
        "p"
      ],
      [
        "'",
        "t"
      ],
      [
        "e",
        "p"
      ],
      [
        "i",
        "le"
      ],
      [
        "Ġ",
        "\\"
      ],
      [
        "Ġthe",
        "ir"
      ],
      [
        "am",
        "e"
      ],
      [
        "a",
        "ke"
      ],
      [
        "p",
        "ic"
      ],
      [
        "u",
        "c"
      ],
      [
        "at",
        "ed"
      ],
      [
        "ro",
        "w"
      ],
      [
        "th",
        "e"
      ],
      [
        "ol",
        "og"
      ],
      [
        "ation",
        "s"
      ],
      [
        "Ġgoo",
        "gle"
      ],
      [
        "Ġab",
        "out"
      ],
      [
        "f",
        "or"
      ],
      [
        "g",
        "er"
      ],
      [
        "Ġ",
        "\""
      ],
      [
        "ou",
        "s"
      ],
      [
        "as",
        "s"
      ],
      [
        "ip",
        "o"
      ],
      [
        "Ġfir",
        "st"
      ],
      [
        "o",
        "y"
      ],
      [
        "p",
        "ort"
      ],
      [
        "u",
        "al"
      ],
      [
        "Ġs",
        "un"
      ],
      [
        "or",
        "s"
      ],
      [
        "Ġm",
        "e"
      ],
      [
        "th",
        "er"
      ],
      [
        "Ġaf",
        "ter"
      ],
      [
        "yst",
        "em"
      ],
      [
        "l",
        "ic"
      ],
      [
        "v",
        "i"
      ],
      [
        "is",
        "s"
      ],
      [
        "Ġin",
        "d"
      ],
      [
        "ur",
        "n"
      ],
      [
        "Ġsc",
        "ient"
      ],
      [
        "Ġmar",
        "ket"
      ],
      [
        "Ġser",
        "v"
      ],
      [
        "i",
        "b"
      ],
      [
        "w",
        "are"
      ],
      [
        "Ġ",
        "ipo"
      ],
      [
        "Ġa",
        "r"
      ],
      [
        "Ġth",
        "an"
      ],
      [
        "or",
        "y"
      ],
      [
        "Ġe",
        "v"
      ],
      [
        "l",
        "o"
      ],
      [
        "t",
        "le"
      ],
      [
        "Ġf",
        "r"
      ],
      [
        "Ġb",
        "r"
      ],
      [
        "Ġn",
        "ot"
      ],
      [
        "un",
        "d"
      ],
      [
        "Ġsh",
        "ow"
      ],
      [
        "ag",
        "e"
      ],
      [
        "Ġcomp",
        "any"
      ],
      [
        "Ġte",
        "am"
      ],
      [
        "c",
        "on"
      ],
      [
        "h",
        "ing"
      ],
      [
        "Ġ",
        "3"
      ],
      [
        "Ġt",
        "w"
      ],
      [
        "Ġc",
        "ol"
      ],
      [
        "Ġp",
        "res"
      ],
      [
        "Ġm",
        "on"
      ],
      [
        "Ġwh",
        "o"
      ],
      [
        "os",
        "e"
      ],
      [
        "Ġpl",
        "ay"
      ],
      [
        "oc",
        "k"
      ],
      [
        "Ġtech",
        "n"
      ],
      [
        "a",
        "b"
      ],
      [
        "e",
        "k"
      ],
      [
        "et",
        "s"
      ],
      [
        "Ġst",
        "ar"
      ],
      [
        "Ġs",
        "ystem"
      ],
      [
        "Ġp",
        "e"
      ],
      [
        "ic",
        "ros"
      ],
      [
        "ig",
        "n"
      ],
      [
        "Ġint",
        "o"
      ],
      [
        "6",
        "6"
      ],
      [
        "d",
        "ing"
      ],
      [
        "e",
        "f"
      ],
      [
        "g",
        "h"
      ],
      [
        "t",
        "ing"
      ],
      [
        "Ġs",
        "oft"
      ],
      [
        "re",
        "at"
      ],
      [
        "Ġp",
        "re"
      ],
      [
        "Ġm",
        "an"
      ],
      [
        "Ġm",
        "ay"
      ],
      [
        "ill",
        "ion"
      ],
      [
        "Ġcon",
        "t"
      ],
      [
        "Ġwor",
        "ld"
      ],
      [
        "m",
        "pic"
      ],
      [
        "Ġ",
        "#"
      ],
      [
        "Ġ",
        "u"
      ],
      [
        "Ġa",
        "m"
      ],
      [
        "in",
        "s"
      ],
      [
        "or",
        "k"
      ],
      [
        "Ġw",
        "ould"
      ],
      [
        "Ġn",
        "et"
      ],
      [
        "iv",
        "ers"
      ],
      [
        "Ġde",
        "vel"
      ],
      [
        "Ġtim",
        "e"
      ],
      [
        "Ġsec",
        "ur"
      ],
      [
        "icros",
        "oft"
      ],
      [
        "Ġsoft",
        "ware"
      ],
      [
        "Ġ",
        "if"
      ],
      [
        "re",
        "n"
      ],
      [
        "at",
        "h"
      ],
      [
        "Ġn",
        "o"
      ],
      [
        "Ġl",
        "oo"
      ],
      [
        "ac",
        "t"
      ],
      [
        "ow",
        "s"
      ],
      [
        "Ġy",
        "our"
      ],
      [
        "ul",
        "t"
      ],
      [
        "ug",
        "h"
      ],
      [
        "Ġexp",
        "er"
      ],
      [
        "Ġac",
        "c"
      ],
      [
        "Ġscient",
        "ists"
      ],
      [
        "Ġdevel",
        "op"
      ],
      [
        "g",
        "et"
      ],
      [
        "t",
        "y"
      ],
      [
        "Ġs",
        "o"
      ],
      [
        "Ġs",
        "ur"
      ],
      [
        "Ġs",
        "ome"
      ],
      [
        "es",
        "day"
      ],
      [
        "an",
        "c"
      ],
      [
        "Ġp",
        "art"
      ],
      [
        "Ġb",
        "ec"
      ],
      [
        "Ġd",
        "r"
      ],
      [
        "Ġd",
        "own"
      ],
      [
        "ou",
        "gh"
      ],
      [
        "Ġre",
        "g"
      ],
      [
        "Ġre",
        "t"
      ],
      [
        "as",
        "e"
      ],
      [
        "Ġ\\",
        "$"
      ],
      [
        "n",
        "ew"
      ],
      [
        "r",
        "al"
      ],
      [
        "y",
        "s"
      ],
      [
        "Ġ",
        "..."
      ],
      [
        "Ġs",
        "ays"
      ],
      [
        "re",
        "e"
      ],
      [
        "an",
        "ce"
      ],
      [
        "Ġo",
        "ly"
      ],
      [
        "Ġh",
        "igh"
      ],
      [
        "as",
        "ed"
      ],
      [
        "Ġst",
        "r"
      ],
      [
        "os",
        "s"
      ],
      [
        "oun",
        "d"
      ],
      [
        "ub",
        "lic"
      ],
      [
        "Ġen",
        "g"
      ],
      [
        "Ġear",
        "th"
      ],
      [
        "olog",
        "y"
      ],
      [
        ".",
        "\\\\"
      ],
      [
        "a",
        "us"
      ],
      [
        "c",
        "ent"
      ],
      [
        "Ġ",
        "'"
      ],
      [
        "Ġ",
        "ke"
      ],
      [
        "Ġs",
        "l"
      ],
      [
        "Ġs",
        "al"
      ],
      [
        "Ġs",
        "up"
      ],
      [
        "Ġs",
        "earch"
      ],
      [
        "Ġc",
        "ar"
      ],
      [
        "it",
        "ion"
      ],
      [
        "ic",
        "es"
      ],
      [
        "as",
        "h"
      ],
      [
        "Ġj",
        "o"
      ],
      [
        "Ġwor",
        "k"
      ],
      [
        "Ġwe",
        "b"
      ],
      [
        "Ġwe",
        "ek"
      ],
      [
        "iz",
        "e"
      ],
      [
        "uct",
        "ion"
      ],
      [
        "Ġsecur",
        "ity"
      ],
      [
        "a",
        "h"
      ],
      [
        "b",
        "er"
      ],
      [
        "g",
        "oo"
      ],
      [
        "n",
        "et"
      ],
      [
        "o",
        "st"
      ],
      [
        "p",
        "h"
      ],
      [
        "p",
        "er"
      ],
      [
        "Ġ",
        "x"
      ],
      [
        "Ġs",
        "at"
      ],
      [
        "Ġs",
        "ay"
      ],
      [
        "Ġf",
        "e"
      ],
      [
        "Ġb",
        "us"
      ],
      [
        "en",
        "c"
      ],
      [
        "is",
        "e"
      ],
      [
        "Ġl",
        "ike"
      ],
      [
        "as",
        "a"
      ],
      [
        "ent",
        "s"
      ],
      [
        "Ġst",
        "re"
      ],
      [
        "ur",
        "s"
      ],
      [
        "id",
        "ay"
      ],
      [
        "Ġbe",
        "en"
      ],
      [
        "\\\\",
        "\""
      ],
      [
        "Ġtw",
        "o"
      ],
      [
        "Ġoly",
        "mpic"
      ],
      [
        ";",
        "/"
      ],
      [
        "l",
        "es"
      ],
      [
        "Ġc",
        "or"
      ],
      [
        "Ġc",
        "all"
      ],
      [
        "Ġf",
        "in"
      ],
      [
        "Ġw",
        "ind"
      ],
      [
        "Ġm",
        "in"
      ],
      [
        "is",
        "h"
      ],
      [
        "om",
        "et"
      ],
      [
        "Ġre",
        "al"
      ],
      [
        "el",
        "p"
      ],
      [
        "Ġst",
        "ud"
      ],
      [
        "ol",
        "d"
      ],
      [
        "Ġwh",
        "at"
      ],
      [
        "Ġwh",
        "ich"
      ],
      [
        "Ġj",
        "ust"
      ],
      [
        "op",
        "le"
      ],
      [
        "Ġle",
        "ad"
      ],
      [
        "Ġ2",
        "00"
      ],
      [
        "=",
        "\""
      ],
      [
        "f",
        "f"
      ],
      [
        "l",
        "ine"
      ],
      [
        "l",
        "ess"
      ],
      [
        "s",
        "er"
      ],
      [
        "Ġs",
        "et"
      ],
      [
        "at",
        "es"
      ],
      [
        "at",
        "ch"
      ],
      [
        "Ġin",
        "v"
      ],
      [
        "Ġd",
        "es"
      ],
      [
        "ro",
        "ugh"
      ],
      [
        "Ġl",
        "ast"
      ],
      [
        "ation",
        "al"
      ],
      [
        "Ġwh",
        "en"
      ],
      [
        "Ġun",
        "der"
      ],
      [
        "Ġfr",
        "iday"
      ],
      [
        "Ġpe",
        "ople"
      ],
      [
        "Ġeng",
        "ine"
      ],
      [
        "aus",
        "e"
      ],
      [
        ".",
        "\""
      ],
      [
        "a",
        "z"
      ],
      [
        "Ġt",
        "ro"
      ],
      [
        "an",
        "ge"
      ],
      [
        "Ġp",
        "er"
      ],
      [
        "Ġw",
        "ere"
      ],
      [
        "ing",
        "s"
      ],
      [
        "Ġm",
        "et"
      ],
      [
        "Ġm",
        "illion"
      ],
      [
        "al",
        "s"
      ],
      [
        "Ġh",
        "ad"
      ],
      [
        "le",
        "ct"
      ],
      [
        "Ġg",
        "et"
      ],
      [
        "Ġre",
        "port"
      ],
      [
        "ut",
        "er"
      ],
      [
        "ap",
        "an"
      ],
      [
        "am",
        "p"
      ],
      [
        "Ġoff",
        "er"
      ],
      [
        "Ġag",
        "ain"
      ],
      [
        "for",
        "m"
      ],
      [
        "Ġtechn",
        "ology"
      ],
      [
        "c",
        "o"
      ],
      [
        "m",
        "on"
      ],
      [
        "t",
        "ed"
      ],
      [
        "u",
        "ch"
      ],
      [
        "w",
        "h"
      ],
      [
        "x",
        "t"
      ],
      [
        "Ġa",
        "ug"
      ],
      [
        "Ġa",
        "mer"
      ],
      [
        "Ġth",
        "urs"
      ],
      [
        "Ġp",
        "ublic"
      ],
      [
        "Ġm",
        "iss"
      ],
      [
        "al",
        "th"
      ],
      [
        "ro",
        "p"
      ],
      [
        "ic",
        "an"
      ],
      [
        "Ġn",
        "or"
      ],
      [
        "Ġn",
        "asa"
      ],
      [
        "Ġl",
        "at"
      ],
      [
        "Ġre",
        "uters"
      ],
      [
        "el",
        "y"
      ],
      [
        "ol",
        "l"
      ],
      [
        "ad",
        "e"
      ],
      [
        "op",
        "e"
      ],
      [
        "Ġcon",
        "s"
      ],
      [
        "Ġthurs",
        "day"
      ],
      [
        "b",
        "e"
      ],
      [
        "i",
        "e"
      ],
      [
        "n",
        "ed"
      ],
      [
        "u",
        "res"
      ],
      [
        "v",
        "es"
      ],
      [
        "Ġc",
        "r"
      ],
      [
        "at",
        "ing"
      ],
      [
        "Ġf",
        "ind"
      ],
      [
        "Ġw",
        "ar"
      ],
      [
        "Ġo",
        "ther"
      ],
      [
        "it",
        "s"
      ],
      [
        "it",
        "ies"
      ],
      [
        "Ġd",
        "ay"
      ],
      [
        "Ġh",
        "ow"
      ],
      [
        "ic",
        "s"
      ],
      [
        "le",
        "t"
      ],
      [
        "Ġan",
        "n"
      ],
      [
        "Ġl",
        "og"
      ],
      [
        "Ġg",
        "u"
      ],
      [
        "ap",
        "p"
      ],
      [
        "Ġr",
        "un"
      ],
      [
        "Ġexp",
        "l"
      ],
      [
        "Ġop",
        "en"
      ],
      [
        "Ġserv",
        "ice"
      ],
      [
        "b",
        "oy"
      ],
      [
        "h",
        "e"
      ],
      [
        "l",
        "ed"
      ],
      [
        "t",
        "im"
      ],
      [
        "v",
        "ed"
      ],
      [
        "w",
        "e"
      ],
      [
        "Ġ",
        "4"
      ],
      [
        "Ġs",
        "ol"
      ],
      [
        "Ġf",
        "ound"
      ],
      [
        "Ġp",
        "ar"
      ],
      [
        "Ġp",
        "ers"
      ],
      [
        "Ġb",
        "u"
      ],
      [
        "it",
        "al"
      ],
      [
        "Ġm",
        "icrosoft"
      ],
      [
        "ar",
        "y"
      ],
      [
        "ro",
        "up"
      ],
      [
        "Ġl",
        "if"
      ],
      [
        "Ġg",
        "en"
      ],
      [
        "om",
        "ers"
      ],
      [
        "Ġre",
        "le"
      ],
      [
        "as",
        "on"
      ],
      [
        "il",
        "d"
      ],
      [
        "Ġst",
        "art"
      ],
      [
        "Ġpro",
        "d"
      ],
      [
        "Ġj",
        "apan"
      ],
      [
        "ul",
        "ar"
      ],
      [
        "ast",
        "er"
      ],
      [
        "Ġun",
        "ivers"
      ],
      [
        "Ġcomp",
        "uter"
      ],
      [
        "ak",
        "es"
      ],
      [
        "sp",
        "ace"
      ],
      [
        "Ġne",
        "ed"
      ],
      [
        "Ġres",
        "earch"
      ],
      [
        "vi",
        "ew"
      ],
      [
        "e",
        "or"
      ],
      [
        "f",
        "ore"
      ],
      [
        "k",
        "ed"
      ],
      [
        "n",
        "esday"
      ],
      [
        "y",
        "ing"
      ],
      [
        "Ġa",
        "ut"
      ],
      [
        "Ġa",
        "th"
      ],
      [
        "Ġa",
        "uction"
      ],
      [
        "Ġs",
        "ou"
      ],
      [
        "Ġth",
        "ere"
      ],
      [
        "on",
        "t"
      ],
      [
        "an",
        "n"
      ],
      [
        "Ġw",
        "ed"
      ],
      [
        "ic",
        "ial"
      ],
      [
        "Ġn",
        "ow"
      ],
      [
        "Ġl",
        "ong"
      ],
      [
        "Ġg",
        "row"
      ],
      [
        "Ġon",
        "line"
      ],
      [
        "oo",
        "d"
      ],
      [
        "Ġat",
        "t"
      ],
      [
        "Ġde",
        "f"
      ],
      [
        "ist",
        "r"
      ],
      [
        "oun",
        "t"
      ],
      [
        "Ġk",
        "n"
      ],
      [
        "ak",
        "ing"
      ],
      [
        "ub",
        "ble"
      ],
      [
        "ire",
        "less"
      ],
      [
        "Ġev",
        "en"
      ],
      [
        "Ġnet",
        "w"
      ],
      [
        "goo",
        "gle"
      ],
      [
        "Ġwind",
        "ows"
      ],
      [
        "Ġwed",
        "nesday"
      ],
      [
        ";",
        "&"
      ],
      [
        "a",
        "x"
      ],
      [
        "d",
        "e"
      ],
      [
        "g",
        "r"
      ],
      [
        "i",
        "ed"
      ],
      [
        "p",
        "t"
      ],
      [
        "v",
        "ing"
      ],
      [
        "w",
        "n"
      ],
      [
        "Ġ",
        "&"
      ],
      [
        "Ġ",
        "\\\\"
      ],
      [
        "in",
        "t"
      ],
      [
        "in",
        "ess"
      ],
      [
        "Ġs",
        "m"
      ],
      [
        "Ġth",
        "rough"
      ],
      [
        "on",
        "d"
      ],
      [
        "on",
        "es"
      ],
      [
        "Ġc",
        "ust"
      ],
      [
        "Ġw",
        "ireless"
      ],
      [
        "Ġb",
        "ro"
      ],
      [
        "Ġb",
        "ack"
      ],
      [
        "ro",
        "und"
      ],
      [
        "Ġl",
        "in"
      ],
      [
        "Ġg",
        "roup"
      ],
      [
        "ut",
        "s"
      ],
      [
        "ut",
        "ion"
      ],
      [
        "ent",
        "er"
      ],
      [
        "Ġbe",
        "fore"
      ],
      [
        "Ġv",
        "i"
      ],
      [
        "Ġwh",
        "ile"
      ],
      [
        "and",
        "s"
      ],
      [
        "Ġexp",
        "ect"
      ],
      [
        "Ġoff",
        "icial"
      ],
      [
        "Ġmo",
        "st"
      ],
      [
        "Ġhe",
        "alth"
      ],
      [
        "Ġne",
        "xt"
      ],
      [
        "Ġsun",
        "day"
      ],
      [
        "Ġcor",
        "p"
      ],
      [
        "1",
        "5"
      ],
      [
        "a",
        "ble"
      ],
      [
        "b",
        "r"
      ],
      [
        "c",
        "l"
      ],
      [
        "g",
        "ing"
      ],
      [
        "g",
        "ed"
      ],
      [
        "g",
        "est"
      ],
      [
        "j",
        "ect"
      ],
      [
        "p",
        "ed"
      ],
      [
        "s",
        "o"
      ],
      [
        "v",
        "en"
      ],
      [
        "w",
        "ay"
      ],
      [
        "Ġ",
        "6"
      ],
      [
        "Ġ",
        "ed"
      ],
      [
        "Ġa",
        "v"
      ],
      [
        "Ġa",
        "ir"
      ],
      [
        "Ġs",
        "en"
      ],
      [
        "Ġc",
        "ra"
      ],
      [
        "or",
        "ding"
      ],
      [
        "Ġp",
        "op"
      ],
      [
        "Ġb",
        "est"
      ],
      [
        "Ġin",
        "f"
      ],
      [
        "al",
        "if"
      ],
      [
        "Ġh",
        "elp"
      ],
      [
        "ic",
        "t"
      ],
      [
        "ic",
        "al"
      ],
      [
        "Ġan",
        "y"
      ],
      [
        "Ġn",
        "ight"
      ],
      [
        "Ġl",
        "ow"
      ],
      [
        "Ġg",
        "r"
      ],
      [
        "Ġg",
        "re"
      ],
      [
        "ac",
        "es"
      ],
      [
        "Ġe",
        "m"
      ],
      [
        "Ġe",
        "con"
      ],
      [
        "el",
        "es"
      ],
      [
        "Ġbe",
        "g"
      ],
      [
        "Ġsp",
        "ec"
      ],
      [
        "Ġsh",
        "are"
      ],
      [
        "ian",
        "t"
      ],
      [
        "Ġplan",
        "s"
      ],
      [
        "Ġgoo",
        "d"
      ],
      [
        "Ġexper",
        "ts"
      ],
      [
        "Ġbec",
        "ause"
      ],
      [
        "new",
        "s"
      ],
      [
        "enc",
        "y"
      ],
      [
        "Ġfin",
        "al"
      ],
      [
        "Ġecon",
        "om"
      ],
      [
        "a",
        "ir"
      ],
      [
        "b",
        "or"
      ],
      [
        "b",
        "ile"
      ],
      [
        "d",
        "ed"
      ],
      [
        "f",
        "ul"
      ],
      [
        "g",
        "al"
      ],
      [
        "i",
        "ble"
      ],
      [
        "i",
        "ous"
      ],
      [
        "l",
        "ist"
      ],
      [
        "m",
        "an"
      ],
      [
        "n",
        "er"
      ],
      [
        "s",
        "h"
      ],
      [
        "t",
        "on"
      ],
      [
        "Ġa",
        "ct"
      ],
      [
        "Ġs",
        "an"
      ],
      [
        "Ġs",
        "omet"
      ],
      [
        "Ġp",
        "at"
      ],
      [
        "Ġm",
        "ake"
      ],
      [
        "Ġto",
        "o"
      ],
      [
        "Ġd",
        "v"
      ],
      [
        "Ġan",
        "t"
      ],
      [
        "Ġn",
        "ear"
      ],
      [
        "Ġre",
        "f"
      ],
      [
        "Ġre",
        "p"
      ],
      [
        "ut",
        "e"
      ],
      [
        "Ġst",
        "ock"
      ],
      [
        "un",
        "ch"
      ],
      [
        "ver",
        "n"
      ],
      [
        "res",
        "s"
      ],
      [
        "Ġus",
        "ing"
      ],
      [
        "Ġro",
        "c"
      ],
      [
        "Ġqu",
        "ot"
      ],
      [
        "Ġtim",
        "es"
      ],
      [
        "Ġpres",
        "s"
      ],
      [
        "Ġmon",
        "th"
      ],
      [
        "Ġsal",
        "es"
      ],
      [
        "Ġbus",
        "iness"
      ],
      [
        "Ġunivers",
        "ity"
      ],
      [
        "b",
        "o"
      ],
      [
        "c",
        "ed"
      ],
      [
        "i",
        "ence"
      ],
      [
        "l",
        "ing"
      ],
      [
        "m",
        "in"
      ],
      [
        "m",
        "iss"
      ],
      [
        "o",
        "id"
      ],
      [
        "v",
        "ers"
      ],
      [
        "Ġ",
        "5"
      ],
      [
        "Ġa",
        "str"
      ],
      [
        "Ġa",
        "round"
      ],
      [
        "Ġs",
        "w"
      ],
      [
        "Ġs",
        "ell"
      ],
      [
        "Ġs",
        "ub"
      ],
      [
        "er",
        "al"
      ],
      [
        "Ġthe",
        "se"
      ],
      [
        "Ġc",
        "ell"
      ],
      [
        "es",
        "e"
      ],
      [
        "an",
        "ies"
      ],
      [
        "at",
        "ory"
      ],
      [
        "Ġf",
        "re"
      ],
      [
        "Ġf",
        "ore"
      ],
      [
        "Ġf",
        "ace"
      ],
      [
        "Ġf",
        "our"
      ],
      [
        "Ġp",
        "o"
      ],
      [
        "Ġw",
        "in"
      ],
      [
        "Ġw",
        "ay"
      ],
      [
        "Ġo",
        "b"
      ],
      [
        "Ġo",
        "il"
      ],
      [
        "Ġo",
        "ur"
      ],
      [
        "Ġb",
        "an"
      ],
      [
        "Ġm",
        "y"
      ],
      [
        "Ġm",
        "ed"
      ],
      [
        "Ġm",
        "ag"
      ],
      [
        "Ġd",
        "ec"
      ],
      [
        "ic",
        "k"
      ],
      [
        "Ġl",
        "ar"
      ],
      [
        "Ġe",
        "lect"
      ],
      [
        "ec",
        "ts"
      ],
      [
        "ur",
        "ing"
      ],
      [
        "id",
        "ent"
      ],
      [
        "us",
        "s"
      ],
      [
        "am",
        "es"
      ],
      [
        "Ġis",
        "s"
      ],
      [
        "Ġpro",
        "ble"
      ],
      [
        "Ġv",
        "ir"
      ],
      [
        "Ġsh",
        "ip"
      ],
      [
        "Ġsh",
        "ould"
      ],
      [
        "Ġsh",
        "ort"
      ],
      [
        "if",
        "ic"
      ],
      [
        "Ġnew",
        "s"
      ],
      [
        "our",
        "ce"
      ],
      [
        "Ġ1",
        "9"
      ],
      [
        "Ġad",
        "v"
      ],
      [
        "ment",
        "s"
      ],
      [
        "pl",
        "ic"
      ],
      [
        "one",
        "y"
      ],
      [
        "Ġop",
        "er"
      ],
      [
        "end",
        "ing"
      ],
      [
        "av",
        "a"
      ],
      [
        "Ġinter",
        "view"
      ],
      [
        "ros",
        "s"
      ],
      [
        "Ġim",
        "p"
      ],
      [
        "Ġyear",
        "s"
      ],
      [
        "Ġplay",
        "boy"
      ],
      [
        "Ġstud",
        "y"
      ],
      [
        "Ġmet",
        "eor"
      ],
      [
        "Ġagain",
        "st"
      ],
      [
        "Ġlat",
        "est"
      ],
      [
        "Ġlog",
        "ger"
      ],
      [
        "Ġbro",
        "ad"
      ],
      [
        "Ġastr",
        "on"
      ],
      [
        "1",
        "4"
      ],
      [
        "a",
        "ve"
      ],
      [
        "c",
        "r"
      ],
      [
        "c",
        "ess"
      ],
      [
        "e",
        "x"
      ],
      [
        "g",
        "o"
      ],
      [
        "l",
        "ud"
      ],
      [
        "m",
        "o"
      ],
      [
        "u",
        "es"
      ],
      [
        "er",
        "ed"
      ],
      [
        "Ġth",
        "ree"
      ],
      [
        "Ġc",
        "re"
      ],
      [
        "Ġc",
        "ount"
      ],
      [
        "es",
        "ter"
      ],
      [
        "at",
        "s"
      ],
      [
        "Ġf",
        "il"
      ],
      [
        "Ġp",
        "c"
      ],
      [
        "en",
        "se"
      ],
      [
        "it",
        "ed"
      ],
      [
        "Ġin",
        "form"
      ],
      [
        "Ġto",
        "day"
      ],
      [
        "Ġd",
        "at"
      ],
      [
        "Ġd",
        "el"
      ],
      [
        "Ġh",
        "um"
      ],
      [
        "ic",
        "a"
      ],
      [
        "le",
        "ar"
      ],
      [
        "Ġn",
        "ational"
      ],
      [
        "Ġg",
        "lo"
      ],
      [
        "Ġre",
        "c"
      ],
      [
        "Ġst",
        "ate"
      ],
      [
        "ur",
        "day"
      ],
      [
        "im",
        "s"
      ],
      [
        "Ġpro",
        "f"
      ],
      [
        "Ġpro",
        "t"
      ],
      [
        "Ġpro",
        "v"
      ],
      [
        "Ġy",
        "ork"
      ],
      [
        "Ġv",
        "er"
      ],
      [
        "Ġv",
        "is"
      ],
      [
        "Ġch",
        "ip"
      ],
      [
        "are",
        "n"
      ],
      [
        "iv",
        "es"
      ],
      [
        "Ġcl",
        "a"
      ],
      [
        "Ġhe",
        "ad"
      ],
      [
        "Ġse",
        "e"
      ],
      [
        "Ġinc",
        "lud"
      ],
      [
        "Ġla",
        "unch"
      ],
      [
        "Ġgo",
        "vern"
      ],
      [
        "Ġapp",
        "le"
      ],
      [
        "urn",
        "ed"
      ],
      [
        "hing",
        "ton"
      ],
      [
        "Ġacc",
        "ording"
      ],
      [
        "Ġret",
        "ail"
      ],
      [
        "Ġsup",
        "er"
      ],
      [
        "Ġx",
        "p"
      ],
      [
        "Ġsat",
        "urday"
      ],
      [
        "Ġoffer",
        "ing"
      ],
      [
        "Ġmiss",
        "ion"
      ],
      [
        "he",
        "ad"
      ],
      [
        "Ġlif",
        "e"
      ],
      [
        "Ġath",
        "ens"
      ],
      [
        "Ġcust",
        "omers"
      ],
      [
        "Ġeconom",
        "y"
      ],
      [
        "f",
        "ont"
      ],
      [
        "h",
        "or"
      ],
      [
        "l",
        "er"
      ],
      [
        "n",
        "s"
      ],
      [
        "t",
        "o"
      ],
      [
        "t",
        "p"
      ],
      [
        "Ġ",
        "ir"
      ],
      [
        "Ġ",
        "enter"
      ],
      [
        "Ġt",
        "eles"
      ],
      [
        "Ġs",
        "k"
      ],
      [
        "Ġs",
        "ize"
      ],
      [
        "Ġc",
        "ent"
      ],
      [
        "Ġc",
        "ap"
      ],
      [
        "Ġc",
        "our"
      ],
      [
        "Ġc",
        "reat"
      ],
      [
        "at",
        "or"
      ],
      [
        "Ġp",
        "ol"
      ],
      [
        "Ġp",
        "ow"
      ],
      [
        "Ġb",
        "o"
      ],
      [
        "Ġm",
        "il"
      ],
      [
        "Ġm",
        "any"
      ],
      [
        "ar",
        "ter"
      ],
      [
        "Ġd",
        "ig"
      ],
      [
        "Ġd",
        "rop"
      ],
      [
        "Ġg",
        "ame"
      ],
      [
        "Ġre",
        "ad"
      ],
      [
        "Ġre",
        "ach"
      ],
      [
        "Ġe",
        "ver"
      ],
      [
        "il",
        "ity"
      ],
      [
        "Ġst",
        "at"
      ],
      [
        "Ġfor",
        "m"
      ],
      [
        "ir",
        "d"
      ],
      [
        "Ġr",
        "a"
      ],
      [
        "Ġr",
        "an"
      ],
      [
        "Ġy",
        "oun"
      ],
      [
        "Ġj",
        "un"
      ],
      [
        "um",
        "ber"
      ],
      [
        "ust",
        "ral"
      ],
      [
        "Ġcon",
        "f"
      ],
      [
        "ud",
        "i"
      ],
      [
        "ack",
        "s"
      ],
      [
        "Ġus",
        "e"
      ],
      [
        "Ġwas",
        "hington"
      ],
      [
        "pl",
        "ay"
      ],
      [
        "ning",
        "s"
      ],
      [
        "Ġdis",
        "c"
      ],
      [
        "Ġph",
        "one"
      ],
      [
        "Ġind",
        "ust"
      ],
      [
        "Ġar",
        "t"
      ],
      [
        "66",
        "66"
      ],
      [
        "Ġdr",
        "ug"
      ],
      [
        "Ġreport",
        "ed"
      ],
      [
        "Ġann",
        "oun"
      ],
      [
        "Ġnetw",
        "ork"
      ],
      [
        "Ġinform",
        "ation"
      ],
      [
        "Ġhum",
        "an"
      ],
      [
        "Ġteles",
        "c"
      ],
      [
        "Ġdig",
        "ital"
      ],
      [
        "'",
        "re"
      ],
      [
        "b",
        "l"
      ],
      [
        "b",
        "s"
      ],
      [
        "b",
        "it"
      ],
      [
        "b",
        "ay"
      ],
      [
        "b",
        "and"
      ],
      [
        "b",
        "ia"
      ],
      [
        "c",
        "c"
      ],
      [
        "e",
        "id"
      ],
      [
        "g",
        "es"
      ],
      [
        "h",
        "ip"
      ],
      [
        "i",
        "o"
      ],
      [
        "i",
        "et"
      ],
      [
        "i",
        "el"
      ],
      [
        "i",
        "qu"
      ],
      [
        "i",
        "ef"
      ],
      [
        "m",
        "icrosoft"
      ],
      [
        "p",
        "ar"
      ],
      [
        "r",
        "on"
      ],
      [
        "r",
        "ican"
      ],
      [
        "u",
        "x"
      ],
      [
        "y",
        "n"
      ],
      [
        "Ġ",
        "9"
      ],
      [
        "Ġt",
        "er"
      ],
      [
        "Ġt",
        "est"
      ],
      [
        "Ġa",
        "head"
      ],
      [
        "Ġth",
        "ose"
      ],
      [
        "Ġc",
        "ut"
      ],
      [
        "Ġc",
        "ity"
      ],
      [
        "or",
        "d"
      ],
      [
        "or",
        "n"
      ],
      [
        "an",
        "ts"
      ],
      [
        "at",
        "er"
      ],
      [
        "Ġp",
        "oss"
      ],
      [
        "Ġw",
        "ell"
      ],
      [
        "Ġb",
        "at"
      ],
      [
        "Ġb",
        "et"
      ],
      [
        "Ġb",
        "el"
      ],
      [
        "Ġb",
        "ig"
      ],
      [
        "Ġb",
        "oo"
      ],
      [
        "it",
        "es"
      ],
      [
        "Ġm",
        "a"
      ],
      [
        "Ġm",
        "us"
      ],
      [
        "Ġm",
        "oney"
      ],
      [
        "Ġin",
        "s"
      ],
      [
        "Ġin",
        "it"
      ],
      [
        "Ġd",
        "em"
      ],
      [
        "Ġh",
        "ur"
      ],
      [
        "Ġh",
        "ubble"
      ],
      [
        "el",
        "f"
      ],
      [
        "el",
        "s"
      ],
      [
        "Ġst",
        "ore"
      ],
      [
        "ec",
        "ut"
      ],
      [
        "Ġbe",
        "ing"
      ],
      [
        "Ġpro",
        "p"
      ],
      [
        "Ġpro",
        "ject"
      ],
      [
        "Ġv",
        "o"
      ],
      [
        "Ġv",
        "ar"
      ],
      [
        "Ġv",
        "ide"
      ],
      [
        "Ġj",
        "ava"
      ],
      [
        "Ġas",
        "s"
      ],
      [
        "Ġal",
        "so"
      ],
      [
        "um",
        "ents"
      ],
      [
        "iv",
        "al"
      ],
      [
        "Ġcomp",
        "anies"
      ],
      [
        "oc",
        "ks"
      ],
      [
        "Ġcl",
        "ass"
      ],
      [
        "Ġmo",
        "on"
      ],
      [
        "Ġmo",
        "bile"
      ],
      [
        "00",
        "0"
      ],
      [
        "Ġplan",
        "et"
      ],
      [
        "Ġbl",
        "ack"
      ],
      [
        "Ġdis",
        "p"
      ],
      [
        "Ġinc",
        "re"
      ],
      [
        "Ġco",
        "st"
      ],
      [
        "Ġco",
        "de"
      ],
      [
        "Ġinter",
        "net"
      ],
      [
        "Ġpr",
        "ices"
      ],
      [
        "Ġdo",
        "es"
      ],
      [
        "Ġcol",
        "um"
      ],
      [
        "Ġsystem",
        "s"
      ],
      [
        "Ġke",
        "ep"
      ],
      [
        "Ġ200",
        "4"
      ],
      [
        ".\"",
        "\\\\\""
      ],
      [
        "Ġper",
        "cent"
      ],
      [
        "Ġresearch",
        "ers"
      ],
      [
        "istr",
        "ation"
      ],
      [
        "Ġkn",
        "ow"
      ],
      [
        "Ġcra",
        "ig"
      ],
      [
        "Ġdv",
        "d"
      ],
      [
        "Ġgovern",
        "ment"
      ],
      [
        "Ġcent",
        "ral"
      ],
      [
        "Ġyoun",
        "g"
      ],
      [
        "Ġtelesc",
        "ope"
      ],
      [
        "'",
        "m"
      ],
      [
        "3",
        "6"
      ],
      [
        "a",
        "w"
      ],
      [
        "a",
        "uts"
      ],
      [
        "c",
        "ast"
      ],
      [
        "e",
        "y"
      ],
      [
        "i",
        "x"
      ],
      [
        "i",
        "er"
      ],
      [
        "m",
        "it"
      ],
      [
        "n",
        "o"
      ],
      [
        "p",
        "e"
      ],
      [
        "p",
        "r"
      ],
      [
        "p",
        "ing"
      ],
      [
        "u",
        "esday"
      ],
      [
        "w",
        "ard"
      ],
      [
        "y",
        "ear"
      ],
      [
        "Ġt",
        "ra"
      ],
      [
        "Ġt",
        "uesday"
      ],
      [
        "Ġa",
        "ustral"
      ],
      [
        "Ġs",
        "us"
      ],
      [
        "Ġs",
        "im"
      ],
      [
        "er",
        "g"
      ],
      [
        "on",
        "s"
      ],
      [
        "re",
        "ad"
      ],
      [
        "Ġthe",
        "m"
      ],
      [
        "Ġc",
        "ur"
      ],
      [
        "or",
        "ts"
      ],
      [
        "Ġf",
        "am"
      ],
      [
        "Ġp",
        "le"
      ],
      [
        "Ġp",
        "ast"
      ],
      [
        "Ġp",
        "ost"
      ],
      [
        "Ġw",
        "r"
      ],
      [
        "Ġo",
        "wn"
      ],
      [
        "Ġb",
        "ar"
      ],
      [
        "Ġb",
        "id"
      ],
      [
        "it",
        "tle"
      ],
      [
        "Ġm",
        "ass"
      ],
      [
        "Ġto",
        "p"
      ],
      [
        "Ġd",
        "on"
      ],
      [
        "Ġd",
        "if"
      ],
      [
        "Ġd",
        "ays"
      ],
      [
        "Ġh",
        "ear"
      ],
      [
        "Ġh",
        "ere"
      ],
      [
        "Ġh",
        "ome"
      ],
      [
        "Ġn",
        "umber"
      ],
      [
        "Ġl",
        "un"
      ],
      [
        "Ġl",
        "ess"
      ],
      [
        "Ġl",
        "ist"
      ],
      [
        "Ġl",
        "ittle"
      ],
      [
        "Ġg",
        "l"
      ],
      [
        "Ġre",
        "d"
      ],
      [
        "Ġe",
        "y"
      ],
      [
        "as",
        "es"
      ],
      [
        "Ġst",
        "ill"
      ],
      [
        "ol",
        "ution"
      ],
      [
        "Ġr",
        "ace"
      ],
      [
        "Ġr",
        "uss"
      ],
      [
        "Ġpro",
        "be"
      ],
      [
        "Ġv",
        "ers"
      ],
      [
        "Ġwh",
        "y"
      ],
      [
        "Ġsh",
        "ar"
      ],
      [
        "Ġap",
        "plic"
      ],
      [
        "Ġwith",
        "out"
      ],
      [
        "ra",
        "ft"
      ],
      [
        "ag",
        "es"
      ],
      [
        "Ġcl",
        "ose"
      ],
      [
        "ak",
        "er"
      ],
      [
        "Ġad",
        "d"
      ],
      [
        "Ġ2",
        "5"
      ],
      [
        "iz",
        "ed"
      ],
      [
        "pl",
        "oy"
      ],
      [
        "Ġbl",
        "og"
      ],
      [
        "Ġac",
        "ross"
      ],
      [
        "Ġfir",
        "m"
      ],
      [
        "Ġla",
        "w"
      ],
      [
        "Ġag",
        "ency"
      ],
      [
        "Ġbr",
        "it"
      ],
      [
        "Ġshow",
        "er"
      ],
      [
        "Ġpres",
        "ident"
      ],
      [
        "Ġloo",
        "king"
      ],
      [
        "Ġ...",
        "\\\\"
      ],
      [
        "Ġstr",
        "ike"
      ],
      [
        "Ġke",
        "y"
      ],
      [
        "Ġsl",
        "ow"
      ],
      [
        "ser",
        "v"
      ],
      [
        "az",
        "ine"
      ],
      [
        "Ġnor",
        "th"
      ],
      [
        "tim",
        "e"
      ],
      [
        "Ġpers",
        "eid"
      ],
      [
        "Ġaut",
        "hor"
      ],
      [
        "Ġsou",
        "th"
      ],
      [
        "Ġofficial",
        "s"
      ],
      [
        "Ġsomet",
        "hing"
      ],
      [
        "Ġmag",
        "azine"
      ],
      [
        "Ġastron",
        "auts"
      ],
      [
        "Ġglo",
        "b"
      ],
      [
        "Ġjun",
        "e"
      ],
      [
        "Ġindust",
        "ry"
      ],
      [
        "Ġinit",
        "ial"
      ],
      [
        "Ġdif",
        "f"
      ],
      [
        "a",
        "f"
      ],
      [
        "a",
        "q"
      ],
      [
        "b",
        "ased"
      ],
      [
        "c",
        "er"
      ],
      [
        "d",
        "an"
      ],
      [
        "e",
        "ed"
      ],
      [
        "f",
        "l"
      ],
      [
        "g",
        "ress"
      ],
      [
        "h",
        "er"
      ],
      [
        "i",
        "k"
      ],
      [
        "i",
        "um"
      ],
      [
        "l",
        "and"
      ],
      [
        "m",
        "ail"
      ],
      [
        "n",
        "ers"
      ],
      [
        "n",
        "ational"
      ],
      [
        "o",
        "ol"
      ],
      [
        "r",
        "ay"
      ],
      [
        "s",
        "list"
      ],
      [
        "t",
        "ain"
      ],
      [
        "u",
        "le"
      ],
      [
        "Ġt",
        "it"
      ],
      [
        "Ġt",
        "al"
      ],
      [
        "Ġt",
        "ry"
      ],
      [
        "in",
        "a"
      ],
      [
        "in",
        "k"
      ],
      [
        "Ġs",
        "u"
      ],
      [
        "Ġs",
        "y"
      ],
      [
        "Ġs",
        "ug"
      ],
      [
        "Ġs",
        "ame"
      ],
      [
        "er",
        "ry"
      ],
      [
        "Ġc",
        "e"
      ],
      [
        "Ġc",
        "alif"
      ],
      [
        "Ġf",
        "un"
      ],
      [
        "Ġf",
        "ree"
      ],
      [
        "Ġp",
        "en"
      ],
      [
        "Ġp",
        "ay"
      ],
      [
        "Ġp",
        "ut"
      ],
      [
        "Ġp",
        "ur"
      ],
      [
        "Ġp",
        "ack"
      ],
      [
        "Ġw",
        "ant"
      ],
      [
        "Ġo",
        "ce"
      ],
      [
        "Ġb",
        "re"
      ],
      [
        "Ġb",
        "en"
      ],
      [
        "Ġm",
        "em"
      ],
      [
        "Ġm",
        "ust"
      ],
      [
        "Ġm",
        "uch"
      ],
      [
        "is",
        "m"
      ],
      [
        "is",
        "ter"
      ],
      [
        "Ġin",
        "st"
      ],
      [
        "Ġin",
        "str"
      ],
      [
        "Ġh",
        "ope"
      ],
      [
        "ro",
        "d"
      ],
      [
        "ic",
        "le"
      ],
      [
        "ic",
        "ans"
      ],
      [
        "ion",
        "al"
      ],
      [
        "Ġl",
        "o"
      ],
      [
        "Ġl",
        "os"
      ],
      [
        "Ġg",
        "iant"
      ],
      [
        "Ġg",
        "ames"
      ],
      [
        "Ġre",
        "ason"
      ],
      [
        "ac",
        "ec"
      ],
      [
        "Ġe",
        "mer"
      ],
      [
        "as",
        "ing"
      ],
      [
        "Ġst",
        "or"
      ],
      [
        "Ġst",
        "ation"
      ],
      [
        "id",
        "s"
      ],
      [
        "Ġon",
        "ly"
      ],
      [
        "im",
        "ate"
      ],
      [
        "oo",
        "k"
      ],
      [
        "Ġsp",
        "acec"
      ],
      [
        "Ġwh",
        "ere"
      ],
      [
        "ul",
        "l"
      ],
      [
        "Ġde",
        "ep"
      ],
      [
        "oc",
        "i"
      ],
      [
        "oc",
        "us"
      ],
      [
        "Ġle",
        "ft"
      ],
      [
        "ian",
        "s"
      ],
      [
        "Ġsa",
        "udi"
      ],
      [
        "Ġus",
        "ed"
      ],
      [
        "Ġsc",
        "ience"
      ],
      [
        "Ġ2",
        "0"
      ],
      [
        "Ġim",
        "age"
      ],
      [
        "Ġsec",
        "ond"
      ],
      [
        "Ġapp",
        "ro"
      ],
      [
        "lo",
        "ad"
      ],
      [
        "Ġcol",
        "or"
      ],
      [
        "Ġstar",
        "s"
      ],
      [
        "ren",
        "t"
      ],
      [
        "Ġloo",
        "ks"
      ],
      [
        "Ġbec",
        "ome"
      ],
      [
        "Ġdown",
        "load"
      ],
      [
        "Ġjo",
        "h"
      ],
      [
        "ah",
        "oo"
      ],
      [
        "Ġbus",
        "h"
      ],
      [
        "Ġstre",
        "am"
      ],
      [
        "Ġreal",
        "ly"
      ],
      [
        "Ġinv",
        "est"
      ],
      [
        "co",
        "ver"
      ],
      [
        "Ġsol",
        "ar"
      ],
      [
        "Ġrele",
        "ase"
      ],
      [
        "Ġlin",
        "ux"
      ],
      [
        "Ġhealth",
        "day"
      ],
      [
        "15",
        "1"
      ],
      [
        "Ġav",
        "oid"
      ],
      [
        "Ġroc",
        "ket"
      ],
      [
        "Ġlar",
        "gest"
      ],
      [
        "Ġiss",
        "ue"
      ],
      [
        "ester",
        "day"
      ],
      [
        "Ġdat",
        "a"
      ],
      [
        "Ġrec",
        "ord"
      ],
      [
        "Ġvide",
        "o"
      ],
      [
        "Ġcraig",
        "slist"
      ],
      [
        "Ġsus",
        "p"
      ],
      [
        "Ġoce",
        "an"
      ],
      [
        "Ġspacec",
        "raft"
      ],
      [
        ".",
        "'"
      ],
      [
        ".",
        "\\"
      ],
      [
        "3",
        "0"
      ],
      [
        "a",
        "ur"
      ],
      [
        "b",
        "ot"
      ],
      [
        "c",
        "ient"
      ],
      [
        "d",
        "es"
      ],
      [
        "e",
        "e"
      ],
      [
        "i",
        "or"
      ],
      [
        "m",
        "ing"
      ],
      [
        "p",
        "ite"
      ],
      [
        "r",
        "ies"
      ],
      [
        "s",
        "on"
      ],
      [
        "u",
        "it"
      ],
      [
        "u",
        "rop"
      ],
      [
        "Ġ",
        "z"
      ],
      [
        "Ġt",
        "akes"
      ],
      [
        "Ġa",
        "ra"
      ],
      [
        "in",
        "i"
      ],
      [
        "in",
        "es"
      ],
      [
        "in",
        "ing"
      ],
      [
        "Ġs",
        "qu"
      ],
      [
        "Ġs",
        "end"
      ],
      [
        "Ġs",
        "ite"
      ],
      [
        "Ġs",
        "uc"
      ],
      [
        "Ġs",
        "ign"
      ],
      [
        "Ġs",
        "uch"
      ],
      [
        "Ġth",
        "ough"
      ],
      [
        "Ġthe",
        "n"
      ],
      [
        "Ġc",
        "are"
      ],
      [
        "es",
        "ts"
      ],
      [
        "Ġf",
        "ew"
      ],
      [
        "Ġp",
        "ot"
      ],
      [
        "Ġw",
        "is"
      ],
      [
        "Ġb",
        "ra"
      ],
      [
        "Ġb",
        "ug"
      ],
      [
        "Ġb",
        "illion"
      ],
      [
        "it",
        "ing"
      ],
      [
        "Ġm",
        "ight"
      ],
      [
        "Ġm",
        "ich"
      ],
      [
        "is",
        "co"
      ],
      [
        "Ġd",
        "est"
      ],
      [
        "Ġd",
        "uring"
      ],
      [
        "Ġh",
        "p"
      ],
      [
        "Ġh",
        "ot"
      ],
      [
        "Ġh",
        "and"
      ],
      [
        "Ġh",
        "ist"
      ],
      [
        "Ġan",
        "al"
      ],
      [
        "st",
        "s"
      ],
      [
        "st",
        "er"
      ],
      [
        "ou",
        "se"
      ],
      [
        "Ġl",
        "ic"
      ],
      [
        "Ġl",
        "oc"
      ],
      [
        "Ġl",
        "ight"
      ],
      [
        "Ġl",
        "ik"
      ],
      [
        "Ġre",
        "l"
      ],
      [
        "Ġre",
        "x"
      ],
      [
        "Ġre",
        "sp"
      ],
      [
        "Ġre",
        "cent"
      ],
      [
        "ac",
        "y"
      ],
      [
        "Ġe",
        "l"
      ],
      [
        "ent",
        "ial"
      ],
      [
        "Ġst",
        "ake"
      ],
      [
        "Ġfor",
        "mer"
      ],
      [
        "id",
        "ence"
      ],
      [
        "ol",
        "ph"
      ],
      [
        "ow",
        "ed"
      ],
      [
        "im",
        "p"
      ],
      [
        "Ġr",
        "is"
      ],
      [
        "Ġr",
        "ight"
      ],
      [
        "Ġbe",
        "h"
      ],
      [
        "ch",
        "ool"
      ],
      [
        "Ġy",
        "ahoo"
      ],
      [
        "Ġy",
        "esterday"
      ],
      [
        "Ġsp",
        "am"
      ],
      [
        "Ġsp",
        "ot"
      ],
      [
        "Ġj",
        "ud"
      ],
      [
        "ce",
        "pt"
      ],
      [
        "est",
        "y"
      ],
      [
        "Ġex",
        "t"
      ],
      [
        "Ġex",
        "ecut"
      ],
      [
        "Ġch",
        "ar"
      ],
      [
        "Ġch",
        "ange"
      ],
      [
        "Ġch",
        "ild"
      ],
      [
        "and",
        "ard"
      ],
      [
        "em",
        "ent"
      ],
      [
        "um",
        "s"
      ],
      [
        "um",
        "mer"
      ],
      [
        "Ġun",
        "t"
      ],
      [
        "Ġwor",
        "king"
      ],
      [
        "Ġexp",
        "lo"
      ],
      [
        "Ġoff",
        "ers"
      ],
      [
        "Ġk",
        "ore"
      ],
      [
        "Ġcl",
        "ou"
      ],
      [
        "com",
        "p"
      ],
      [
        "Ġle",
        "ar"
      ],
      [
        "Ġ1",
        "2"
      ],
      [
        "Ġad",
        "min"
      ],
      [
        "Ġmo",
        "d"
      ],
      [
        "Ġus",
        "ers"
      ],
      [
        "Ġen",
        "ough"
      ],
      [
        "Ġplan",
        "ets"
      ],
      [
        "Ġqu",
        "est"
      ],
      [
        "Ġtr",
        "ans"
      ],
      [
        "Ġi",
        "b"
      ],
      [
        "av",
        "es"
      ],
      [
        "Ġinter",
        "national"
      ],
      [
        "Ġph",
        "ones"
      ],
      [
        "Ġpr",
        "iv"
      ],
      [
        "str",
        "ong"
      ],
      [
        "ual",
        "ly"
      ],
      [
        "ther",
        "n"
      ],
      [
        "Ġmarket",
        "s"
      ],
      [
        "Ġmon",
        "day"
      ],
      [
        "Ġman",
        "ned"
      ],
      [
        "Ġu",
        "k"
      ],
      [
        "Ġam",
        "ong"
      ],
      [
        "Ġacc",
        "ess"
      ],
      [
        "anc",
        "es"
      ],
      [
        "Ġreg",
        "ion"
      ],
      [
        "Ġolympic",
        "s"
      ],
      [
        "Ġcall",
        "s"
      ],
      [
        "Ġset",
        "tle"
      ],
      [
        "Ġdes",
        "pite"
      ],
      [
        "wh",
        "at"
      ],
      [
        "Ġaug",
        "ust"
      ],
      [
        "Ġamer",
        "ican"
      ],
      [
        "Ġcons",
        "um"
      ],
      [
        "Ġrun",
        "ning"
      ],
      [
        "gr",
        "am"
      ],
      [
        "Ġvi",
        "ol"
      ],
      [
        "Ġexpect",
        "ed"
      ],
      [
        "Ġpop",
        "ular"
      ],
      [
        "Ġshare",
        "s"
      ],
      [
        "Ġnear",
        "ly"
      ],
      [
        "bo",
        "ard"
      ],
      [
        "miss",
        "ion"
      ],
      [
        "Ġelect",
        "ron"
      ],
      [
        "Ġproble",
        "ms"
      ],
      [
        "Ġcount",
        "ry"
      ],
      [
        "Ġprot",
        "ect"
      ],
      [
        "Ġcour",
        "se"
      ],
      [
        "Ġpow",
        "er"
      ],
      [
        "Ġart",
        "icle"
      ],
      [
        "Ġannoun",
        "ced"
      ],
      [
        "Ġmus",
        "ic"
      ],
      [
        "Ġhur",
        "rican"
      ],
      [
        "Ġvers",
        "ion"
      ],
      [
        "Ġdiff",
        "er"
      ],
      [
        "urop",
        "e"
      ],
      [
        "Ġlik",
        "ely"
      ],
      [
        "\"",
        "&"
      ],
      [
        "b",
        "all"
      ],
      [
        "c",
        "ol"
      ],
      [
        "c",
        "ap"
      ],
      [
        "d",
        "own"
      ],
      [
        "f",
        "i"
      ],
      [
        "g",
        "ian"
      ],
      [
        "h",
        "el"
      ],
      [
        "i",
        "ver"
      ],
      [
        "j",
        "or"
      ],
      [
        "k",
        "y"
      ],
      [
        "k",
        "ins"
      ],
      [
        "m",
        "ost"
      ],
      [
        "n",
        "ess"
      ],
      [
        "n",
        "ect"
      ],
      [
        "p",
        "o"
      ],
      [
        "p",
        "ly"
      ],
      [
        "r",
        "or"
      ],
      [
        "r",
        "un"
      ],
      [
        "s",
        "et"
      ],
      [
        "t",
        "is"
      ],
      [
        "t",
        "ers"
      ],
      [
        "u",
        "el"
      ],
      [
        "v",
        "et"
      ],
      [
        "Ġ",
        "7"
      ],
      [
        "Ġ",
        "\\\\\""
      ],
      [
        "Ġt",
        "y"
      ],
      [
        "Ġt",
        "em"
      ],
      [
        "Ġt",
        "ake"
      ],
      [
        "in",
        "os"
      ],
      [
        "Ġs",
        "in"
      ],
      [
        "Ġs",
        "ource"
      ],
      [
        "Ġth",
        "ing"
      ],
      [
        "Ġth",
        "ird"
      ],
      [
        "Ġth",
        "ink"
      ],
      [
        "Ġc",
        "am"
      ],
      [
        "Ġc",
        "ause"
      ],
      [
        "Ġc",
        "lear"
      ],
      [
        "or",
        "ing"
      ],
      [
        "or",
        "ation"
      ],
      [
        "at",
        "ure"
      ],
      [
        "at",
        "ors"
      ],
      [
        "Ġf",
        "ar"
      ],
      [
        "Ġf",
        "ed"
      ],
      [
        "Ġf",
        "all"
      ],
      [
        "Ġf",
        "ive"
      ],
      [
        "Ġf",
        "oll"
      ],
      [
        "Ġf",
        "ull"
      ],
      [
        "Ġp",
        "al"
      ],
      [
        "Ġp",
        "oll"
      ],
      [
        "Ġw",
        "on"
      ],
      [
        "Ġw",
        "al"
      ],
      [
        "Ġw",
        "ild"
      ],
      [
        "Ġb",
        "it"
      ],
      [
        "Ġb",
        "al"
      ],
      [
        "Ġb",
        "ud"
      ],
      [
        "Ġm",
        "ot"
      ],
      [
        "Ġm",
        "ain"
      ],
      [
        "Ġm",
        "ade"
      ],
      [
        "is",
        "ion"
      ],
      [
        "al",
        "e"
      ],
      [
        "Ġto",
        "ol"
      ],
      [
        "Ġd",
        "ar"
      ],
      [
        "Ġd",
        "et"
      ],
      [
        "Ġd",
        "ell"
      ],
      [
        "Ġh",
        "er"
      ],
      [
        "Ġh",
        "it"
      ],
      [
        "Ġh",
        "al"
      ],
      [
        "Ġh",
        "un"
      ],
      [
        "Ġh",
        "ack"
      ],
      [
        "Ġh",
        "ard"
      ],
      [
        "ic",
        "ip"
      ],
      [
        "ou",
        "ble"
      ],
      [
        "Ġl",
        "im"
      ],
      [
        "Ġl",
        "ib"
      ],
      [
        "Ġl",
        "yn"
      ],
      [
        "Ġg",
        "ap"
      ],
      [
        "Ġg",
        "old"
      ],
      [
        "Ġre",
        "ve"
      ],
      [
        "ac",
        "ed"
      ],
      [
        "Ġe",
        "ff"
      ],
      [
        "Ġe",
        "urope"
      ],
      [
        "ut",
        "ure"
      ],
      [
        "il",
        "ty"
      ],
      [
        "ent",
        "al"
      ],
      [
        "Ġst",
        "andard"
      ],
      [
        "Ġfor",
        "ce"
      ],
      [
        "id",
        "er"
      ],
      [
        "th",
        "ough"
      ],
      [
        "ap",
        "er"
      ],
      [
        "Ġr",
        "ad"
      ],
      [
        "Ġr",
        "ival"
      ],
      [
        "Ġis",
        "n"
      ],
      [
        "Ġpro",
        "m"
      ],
      [
        "Ġpro",
        "sp"
      ],
      [
        "Ġpro",
        "gram"
      ],
      [
        "Ġv",
        "ac"
      ],
      [
        "Ġsh",
        "ut"
      ],
      [
        "op",
        "s"
      ],
      [
        "Ġcom",
        "mon"
      ],
      [
        "Ġch",
        "air"
      ],
      [
        "Ġch",
        "ief"
      ],
      [
        "Ġpl",
        "ace"
      ],
      [
        "ul",
        "ts"
      ],
      [
        "and",
        "ra"
      ],
      [
        "Ġcon",
        "cer"
      ],
      [
        "iv",
        "en"
      ],
      [
        "iv",
        "ing"
      ],
      [
        "Ġde",
        "b"
      ],
      [
        "Ġde",
        "v"
      ],
      [
        "Ġde",
        "ad"
      ],
      [
        "Ġun",
        "ited"
      ],
      [
        "Ġcomp",
        "et"
      ],
      [
        "oc",
        "r"
      ],
      [
        "Ġk",
        "ind"
      ],
      [
        "Ġk",
        "erry"
      ],
      [
        "Ġcl",
        "on"
      ],
      [
        "Ġcl",
        "os"
      ],
      [
        "Ġcl",
        "imate"
      ],
      [
        "ak",
        "en"
      ],
      [
        "Ġle",
        "gal"
      ],
      [
        "Ġha",
        "ving"
      ],
      [
        "Ġ1",
        "0"
      ],
      [
        "ain",
        "s"
      ],
      [
        "Ġor",
        "der"
      ],
      [
        "Ġor",
        "bit"
      ],
      [
        "Ġse",
        "ason"
      ],
      [
        "Ġte",
        "x"
      ],
      [
        "Ġte",
        "en"
      ],
      [
        "Ġplan",
        "ning"
      ],
      [
        "iz",
        "ation"
      ],
      [
        "ail",
        "s"
      ],
      [
        "Ġbl",
        "ock"
      ],
      [
        "Ġqu",
        "arter"
      ],
      [
        "Ġne",
        "ver"
      ],
      [
        "Ġtr",
        "ack"
      ],
      [
        "Ġear",
        "ly"
      ],
      [
        "Ġear",
        "nings"
      ],
      [
        "ire",
        "d"
      ],
      [
        "Ġpr",
        "ize"
      ],
      [
        "Ġfl",
        "o"
      ],
      [
        "pic",
        "al"
      ],
      [
        "vi",
        "ous"
      ],
      [
        "Ġtechn",
        "iqu"
      ],
      [
        "Ġstar",
        "ts"
      ],
      [
        "Ġcont",
        "r"
      ],
      [
        "Ġcont",
        "in"
      ],
      [
        "Ġam",
        "az"
      ],
      [
        "ath",
        "er"
      ],
      [
        "Ġdevelop",
        "ers"
      ],
      [
        "Ġsur",
        "ren"
      ],
      [
        "Ġret",
        "urn"
      ],
      [
        "Ġfe",
        "et"
      ],
      [
        "Ġcall",
        "ed"
      ],
      [
        "elp",
        "s"
      ],
      [
        ".\"",
        "\\\\"
      ],
      [
        "Ġamer",
        "icans"
      ],
      [
        "Ġann",
        "ual"
      ],
      [
        "Ġgu",
        "ilty"
      ],
      [
        "Ġpers",
        "on"
      ],
      [
        "Ġrele",
        "ased"
      ],
      [
        "Ġprod",
        "uct"
      ],
      [
        "Ġgrow",
        "th"
      ],
      [
        "Ġsm",
        "all"
      ],
      [
        "Ġvi",
        "ew"
      ],
      [
        "Ġav",
        "ail"
      ],
      [
        "Ġgr",
        "ant"
      ],
      [
        "Ġem",
        "b"
      ],
      [
        "Ġspec",
        "ial"
      ],
      [
        "Ġmonth",
        "s"
      ],
      [
        "Ġob",
        "serv"
      ],
      [
        "Ġoper",
        "ating"
      ],
      [
        "Ġcla",
        "ims"
      ],
      [
        "Ġir",
        "aq"
      ],
      [
        "Ġever",
        "y"
      ],
      [
        "Ġma",
        "jor"
      ],
      [
        "Ġass",
        "oci"
      ],
      [
        "Ġple",
        "ad"
      ],
      [
        "Ġbrit",
        "ish"
      ],
      [
        "Ġglob",
        "al"
      ],
      [
        "Ġinstr",
        "uments"
      ],
      [
        "rod",
        "uc"
      ],
      [
        "Ġjoh",
        "n"
      ],
      [
        "Ġsuc",
        "cess"
      ],
      [
        "Ġunt",
        "il"
      ],
      [
        "Ġib",
        "m"
      ],
      [
        "Ġdiffer",
        "ent"
      ],
      [
        "Ġfed",
        "eral"
      ],
      [
        "\"",
        "\\"
      ],
      [
        ",",
        "\""
      ],
      [
        ":",
        "\\\\"
      ],
      [
        ";",
        "-"
      ],
      [
        "?",
        "\""
      ],
      [
        "a",
        "ign"
      ],
      [
        "b",
        "i"
      ],
      [
        "b",
        "y"
      ],
      [
        "c",
        "os"
      ],
      [
        "d",
        "ell"
      ],
      [
        "d",
        "ate"
      ],
      [
        "e",
        "er"
      ],
      [
        "e",
        "es"
      ],
      [
        "e",
        "bay"
      ],
      [
        "g",
        "in"
      ],
      [
        "g",
        "an"
      ],
      [
        "g",
        "en"
      ],
      [
        "i",
        "ers"
      ],
      [
        "l",
        "s"
      ],
      [
        "l",
        "if"
      ],
      [
        "m",
        "un"
      ],
      [
        "m",
        "ad"
      ],
      [
        "m",
        "os"
      ],
      [
        "o",
        "f"
      ],
      [
        "o",
        "es"
      ],
      [
        "o",
        "ther"
      ],
      [
        "p",
        "ro"
      ],
      [
        "z",
        "ill"
      ],
      [
        "Ġ",
        "est"
      ],
      [
        "Ġ",
        "ide"
      ],
      [
        "Ġt",
        "ar"
      ],
      [
        "Ġt",
        "urn"
      ],
      [
        "Ġt",
        "reat"
      ],
      [
        "Ġt",
        "urned"
      ],
      [
        "Ġa",
        "way"
      ],
      [
        "in",
        "f"
      ],
      [
        "in",
        "ed"
      ],
      [
        "Ġs",
        "n"
      ],
      [
        "Ġs",
        "ing"
      ],
      [
        "Ġs",
        "em"
      ],
      [
        "Ġs",
        "ud"
      ],
      [
        "Ġs",
        "ans"
      ],
      [
        "Ġc",
        "ir"
      ],
      [
        "Ġc",
        "ore"
      ],
      [
        "Ġc",
        "row"
      ],
      [
        "or",
        "id"
      ],
      [
        "an",
        "e"
      ],
      [
        "at",
        "ic"
      ],
      [
        "at",
        "ers"
      ],
      [
        "at",
        "ely"
      ],
      [
        "at",
        "ures"
      ],
      [
        "Ġf",
        "ell"
      ],
      [
        "Ġf",
        "ight"
      ],
      [
        "Ġf",
        "ail"
      ],
      [
        "Ġf",
        "ire"
      ],
      [
        "Ġf",
        "aster"
      ],
      [
        "Ġf",
        "ood"
      ],
      [
        "Ġf",
        "uture"
      ],
      [
        "Ġp",
        "in"
      ],
      [
        "Ġp",
        "os"
      ],
      [
        "Ġp",
        "aren"
      ],
      [
        "Ġw",
        "i"
      ],
      [
        "Ġw",
        "all"
      ],
      [
        "Ġw",
        "atch"
      ],
      [
        "Ġw",
        "ater"
      ],
      [
        "Ġo",
        "ld"
      ],
      [
        "Ġb",
        "as"
      ],
      [
        "Ġb",
        "ir"
      ],
      [
        "it",
        "ch"
      ],
      [
        "Ġm",
        "at"
      ],
      [
        "Ġm",
        "al"
      ],
      [
        "Ġm",
        "ill"
      ],
      [
        "Ġm",
        "ess"
      ],
      [
        "Ġm",
        "ist"
      ],
      [
        "ar",
        "ial"
      ],
      [
        "is",
        "on"
      ],
      [
        "is",
        "ed"
      ],
      [
        "Ġd",
        "ied"
      ],
      [
        "Ġd",
        "olph"
      ],
      [
        "Ġh",
        "ar"
      ],
      [
        "Ġh",
        "app"
      ],
      [
        "ro",
        "ve"
      ],
      [
        "ic",
        "ated"
      ],
      [
        "le",
        "y"
      ],
      [
        "Ġl",
        "ate"
      ],
      [
        "Ġg",
        "ets"
      ],
      [
        "Ġg",
        "reat"
      ],
      [
        "Ġre",
        "qu"
      ],
      [
        "ac",
        "ing"
      ],
      [
        "ac",
        "le"
      ],
      [
        "ac",
        "ific"
      ],
      [
        "Ġe",
        "qu"
      ],
      [
        "as",
        "k"
      ],
      [
        "il",
        "y"
      ],
      [
        "il",
        "le"
      ],
      [
        "Ġst",
        "e"
      ],
      [
        "Ġst",
        "ep"
      ],
      [
        "Ġst",
        "ates"
      ],
      [
        "Ġfor",
        "ums"
      ],
      [
        "ur",
        "t"
      ],
      [
        "ad",
        "a"
      ],
      [
        "ir",
        "on"
      ],
      [
        "ve",
        "y"
      ],
      [
        "oo",
        "t"
      ],
      [
        "Ġr",
        "ap"
      ],
      [
        "Ġr",
        "are"
      ],
      [
        "Ġr",
        "ule"
      ],
      [
        "Ġbe",
        "ach"
      ],
      [
        "Ġpro",
        "per"
      ],
      [
        "os",
        "p"
      ],
      [
        "ver",
        "al"
      ],
      [
        "ver",
        "dan"
      ],
      [
        "ot",
        "e"
      ],
      [
        "ke",
        "ys"
      ],
      [
        "Ġas",
        "ia"
      ],
      [
        "Ġch",
        "e"
      ],
      [
        "Ġch",
        "an"
      ],
      [
        "Ġch",
        "ec"
      ],
      [
        "Ġch",
        "amp"
      ],
      [
        "Ġch",
        "ann"
      ],
      [
        "igh",
        "ts"
      ],
      [
        "Ġal",
        "though"
      ],
      [
        "Ġwor",
        "ks"
      ],
      [
        "Ġk",
        "ill"
      ],
      [
        "com",
        "e"
      ],
      [
        "Ġmo",
        "vi"
      ],
      [
        "Ġor",
        "gan"
      ],
      [
        "Ġse",
        "at"
      ],
      [
        "Ġse",
        "en"
      ],
      [
        "Ġse",
        "veral"
      ],
      [
        "Ġmar",
        "s"
      ],
      [
        "Ġro",
        "bot"
      ],
      [
        "Ġqu",
        "alif"
      ],
      [
        "Ġqu",
        "ick"
      ],
      [
        "Ġdis",
        "play"
      ],
      [
        "Ġser",
        "if"
      ],
      [
        "end",
        "ed"
      ],
      [
        "Ġtr",
        "ade"
      ],
      [
        "Ġout",
        "l"
      ],
      [
        "Ġla",
        "b"
      ],
      [
        "Ġla",
        "bor"
      ],
      [
        "uct",
        "ure"
      ],
      [
        "Ġinter",
        "est"
      ],
      [
        "Ġpr",
        "ice"
      ],
      [
        "Ġfl",
        "orid"
      ],
      [
        "Ġapp",
        "ear"
      ],
      [
        "Ġapp",
        "aren"
      ],
      [
        "ystem",
        "s"
      ],
      [
        "Ġserv",
        "ices"
      ],
      [
        "ib",
        "ly"
      ],
      [
        "Ġfr",
        "anc"
      ],
      [
        "con",
        "s"
      ],
      [
        "Ġplay",
        "er"
      ],
      [
        "Ġpre",
        "vious"
      ],
      [
        "Ġman",
        "ag"
      ],
      [
        "Ġcont",
        "ro"
      ],
      [
        "Ġloo",
        "k"
      ],
      [
        "Ġdevelop",
        "ing"
      ],
      [
        "Ġdevelop",
        "ment"
      ],
      [
        "Ġso",
        "on"
      ],
      [
        "Ġsur",
        "vey"
      ],
      [
        "anc",
        "ed"
      ],
      [
        "Ġpart",
        "ners"
      ],
      [
        "Ġhigh",
        "ly"
      ],
      [
        "Ġsup",
        "port"
      ],
      [
        "Ġcar",
        "go"
      ],
      [
        "Ġjo",
        "bs"
      ],
      [
        "ph",
        "one"
      ],
      [
        "enc",
        "es"
      ],
      [
        "Ġmin",
        "or"
      ],
      [
        "Ġlead",
        "ing"
      ],
      [
        "=\"",
        "#"
      ],
      [
        "=\"",
        "-"
      ],
      [
        "Ġinv",
        "ent"
      ],
      [
        "Ġdes",
        "ign"
      ],
      [
        "Ġunder",
        "st"
      ],
      [
        "amp",
        "aign"
      ],
      [
        "wh",
        "ich"
      ],
      [
        "Ġamer",
        "ica"
      ],
      [
        "Ġrun",
        "s"
      ],
      [
        "we",
        "en"
      ],
      [
        "Ġjapan",
        "ese"
      ],
      [
        "Ġneed",
        "s"
      ],
      [
        "Ġgrow",
        "ing"
      ],
      [
        "Ġnetw",
        "or"
      ],
      [
        "Ġinf",
        "l"
      ],
      [
        "Ġinf",
        "ra"
      ],
      [
        "Ġem",
        "ploy"
      ],
      [
        "Ġbeg",
        "an"
      ],
      [
        "Ġbeg",
        "ins"
      ],
      [
        "Ġtoo",
        "k"
      ],
      [
        "Ġproble",
        "m"
      ],
      [
        "Ġvir",
        "us"
      ],
      [
        "Ġvir",
        "gin"
      ],
      [
        "cr",
        "ib"
      ],
      [
        "Ġprov",
        "ide"
      ],
      [
        "Ġver",
        "y"
      ],
      [
        "Ġvis",
        "ual"
      ],
      [
        "Ġinclud",
        "ing"
      ],
      [
        "Ġpol",
        "it"
      ],
      [
        "Ġra",
        "ise"
      ],
      [
        "6666",
        "66"
      ],
      [
        "iel",
        "d"
      ],
      [
        "Ġ9",
        "0"
      ],
      [
        "Ġter",
        "ror"
      ],
      [
        "orn",
        "ia"
      ],
      [
        "Ġposs",
        "ible"
      ],
      [
        "Ġbet",
        "ween"
      ],
      [
        "Ġdem",
        "ocr"
      ],
      [
        "Ġprop",
        "os"
      ],
      [
        "Ġvo",
        "ip"
      ],
      [
        "erg",
        "y"
      ],
      [
        "Ġcur",
        "rent"
      ],
      [
        "Ġhear",
        "t"
      ],
      [
        "Ġlun",
        "ar"
      ],
      [
        "Ġruss",
        "ian"
      ],
      [
        "Ġlaw",
        "s"
      ],
      [
        "Ġstream",
        "ing"
      ],
      [
        "Ġara",
        "bia"
      ],
      [
        "Ġsqu",
        "are"
      ],
      [
        "Ġthough",
        "t"
      ],
      [
        "Ġdest",
        "in"
      ],
      [
        "Ġbeh",
        "ind"
      ],
      [
        "esty",
        "le"
      ],
      [
        "Ġchild",
        "ren"
      ],
      [
        "Ġkore",
        "a"
      ],
      [
        "Ġhurrican",
        "e"
      ],
      [
        "hel",
        "vet"
      ],
      [
        "nect",
        "ions"
      ],
      [
        "Ġmot",
        "ion"
      ],
      [
        "Ġlib",
        "er"
      ],
      [
        "Ġlyn",
        "n"
      ],
      [
        "Ġtex",
        "as"
      ],
      [
        "Ġperson",
        "al"
      ],
      [
        "Ġavail",
        "able"
      ],
      [
        "Ġobserv",
        "atory"
      ],
      [
        "zill",
        "a"
      ],
      [
        "Ġtar",
        "get"
      ],
      [
        "Ġsud",
        "an"
      ],
      [
        "Ġparen",
        "ts"
      ],
      [
        "Ġmill",
        "ions"
      ],
      [
        "verdan",
        "a"
      ],
      [
        "Ġlabor",
        "atory"
      ],
      [
        "Ġflorid",
        "a"
      ],
      [
        "Ġapparen",
        "t"
      ],
      [
        "helvet",
        "ica"
      ],
      [
        "!",
        "\\\\"
      ],
      [
        "'",
        "ve"
      ],
      [
        ")",
        ","
      ],
      [
        ".",
        "&"
      ],
      [
        "1",
        "0"
      ],
      [
        "a",
        "el"
      ],
      [
        "b",
        "u"
      ],
      [
        "c",
        "ine"
      ],
      [
        "c",
        "ial"
      ],
      [
        "d",
        "en"
      ],
      [
        "d",
        "ers"
      ],
      [
        "e",
        "ad"
      ],
      [
        "e",
        "ks"
      ],
      [
        "f",
        "ur"
      ],
      [
        "f",
        "all"
      ],
      [
        "f",
        "ect"
      ],
      [
        "h",
        "p"
      ],
      [
        "h",
        "t"
      ],
      [
        "h",
        "ere"
      ],
      [
        "j",
        "ects"
      ],
      [
        "k",
        "n"
      ],
      [
        "l",
        "oc"
      ],
      [
        "l",
        "ight"
      ],
      [
        "l",
        "ant"
      ],
      [
        "m",
        "a"
      ],
      [
        "m",
        "e"
      ],
      [
        "m",
        "p"
      ],
      [
        "m",
        "y"
      ],
      [
        "m",
        "ed"
      ],
      [
        "m",
        "aker"
      ],
      [
        "n",
        "y"
      ],
      [
        "n",
        "es"
      ],
      [
        "n",
        "an"
      ],
      [
        "n",
        "ame"
      ],
      [
        "o",
        "k"
      ],
      [
        "o",
        "le"
      ],
      [
        "o",
        "ff"
      ],
      [
        "o",
        "des"
      ],
      [
        "p",
        "ow"
      ],
      [
        "p",
        "ack"
      ],
      [
        "s",
        "a"
      ],
      [
        "s",
        "ome"
      ],
      [
        "s",
        "ite"
      ],
      [
        "t",
        "e"
      ],
      [
        "t",
        "al"
      ],
      [
        "t",
        "ra"
      ],
      [
        "t",
        "ech"
      ],
      [
        "u",
        "f"
      ],
      [
        "u",
        "ce"
      ],
      [
        "u",
        "ke"
      ],
      [
        "v",
        "ent"
      ],
      [
        "v",
        "iron"
      ],
      [
        "w",
        "or"
      ],
      [
        "w",
        "ork"
      ],
      [
        "x",
        "ic"
      ],
      [
        "y",
        "mpic"
      ],
      [
        "y",
        "pe"
      ],
      [
        "Ġ",
        "="
      ],
      [
        "Ġ",
        "ult"
      ],
      [
        "Ġt",
        "ie"
      ],
      [
        "Ġt",
        "aken"
      ],
      [
        "Ġa",
        "er"
      ],
      [
        "Ġa",
        "id"
      ],
      [
        "Ġa",
        "ol"
      ],
      [
        "in",
        "c"
      ],
      [
        "Ġs",
        "ap"
      ],
      [
        "Ġs",
        "ummer"
      ],
      [
        "Ġth",
        "ous"
      ],
      [
        "Ġth",
        "reat"
      ],
      [
        "on",
        "y"
      ],
      [
        "Ġc",
        "y"
      ],
      [
        "Ġc",
        "er"
      ],
      [
        "Ġc",
        "ase"
      ],
      [
        "Ġc",
        "ampaign"
      ],
      [
        "an",
        "g"
      ],
      [
        "at",
        "ive"
      ],
      [
        "Ġf",
        "ur"
      ],
      [
        "Ġf",
        "act"
      ],
      [
        "Ġf",
        "aces"
      ],
      [
        "Ġf",
        "uel"
      ],
      [
        "Ġf",
        "oot"
      ],
      [
        "Ġp",
        "ion"
      ],
      [
        "Ġp",
        "acific"
      ],
      [
        "Ġw",
        "aves"
      ],
      [
        "Ġw",
        "aters"
      ],
      [
        "Ġo",
        "s"
      ],
      [
        "Ġb",
        "un"
      ],
      [
        "Ġb",
        "ad"
      ],
      [
        "en",
        "ing"
      ],
      [
        "en",
        "ey"
      ],
      [
        "it",
        "ions"
      ],
      [
        "Ġm",
        "ach"
      ],
      [
        "Ġm",
        "yst"
      ],
      [
        "Ġm",
        "aking"
      ],
      [
        "Ġm",
        "aker"
      ],
      [
        "ar",
        "i"
      ],
      [
        "ar",
        "ia"
      ],
      [
        "ed",
        "icated"
      ],
      [
        "al",
        "ed"
      ],
      [
        "al",
        "ity"
      ],
      [
        "Ġto",
        "ur"
      ],
      [
        "Ġto",
        "get"
      ],
      [
        "Ġd",
        "ust"
      ],
      [
        "Ġd",
        "ire"
      ],
      [
        "Ġd",
        "edicated"
      ],
      [
        "Ġh",
        "ew"
      ],
      [
        "Ġh",
        "op"
      ],
      [
        "Ġh",
        "its"
      ],
      [
        "ic",
        "em"
      ],
      [
        "Ġan",
        "im"
      ],
      [
        "Ġn",
        "ame"
      ],
      [
        "Ġn",
        "uc"
      ],
      [
        "Ġl",
        "ad"
      ],
      [
        "Ġl",
        "ot"
      ],
      [
        "Ġl",
        "oss"
      ],
      [
        "Ġg",
        "as"
      ],
      [
        "om",
        "en"
      ],
      [
        "Ġe",
        "at"
      ],
      [
        "Ġe",
        "le"
      ],
      [
        "Ġe",
        "bay"
      ],
      [
        "Ġe",
        "cos"
      ],
      [
        "il",
        "s"
      ],
      [
        "il",
        "ding"
      ],
      [
        "Ġst",
        "op"
      ],
      [
        "Ġst",
        "em"
      ],
      [
        "ec",
        "e"
      ],
      [
        "ur",
        "y"
      ],
      [
        "th",
        "in"
      ],
      [
        "th",
        "ing"
      ],
      [
        "ol",
        "ympic"
      ],
      [
        "Ġon",
        "ce"
      ],
      [
        "ow",
        "ing"
      ],
      [
        "us",
        "h"
      ],
      [
        "ig",
        "in"
      ],
      [
        "ap",
        "t"
      ],
      [
        "im",
        "e"
      ],
      [
        "im",
        "ental"
      ],
      [
        "Ġr",
        "ing"
      ],
      [
        "Ġr",
        "ates"
      ],
      [
        "Ġr",
        "ange"
      ],
      [
        "Ġbe",
        "a"
      ],
      [
        "Ġbe",
        "at"
      ],
      [
        "Ġis",
        "ra"
      ],
      [
        "ch",
        "ed"
      ],
      [
        "Ġpro",
        "jects"
      ],
      [
        "Ġsp",
        "ending"
      ],
      [
        "Ġsp",
        "orts"
      ],
      [
        "Ġj",
        "ose"
      ],
      [
        "ver",
        "tis"
      ],
      [
        "Ġsh",
        "ot"
      ],
      [
        "Ġcom",
        "mer"
      ],
      [
        "Ġcom",
        "mission"
      ],
      [
        "Ġcom",
        "mun"
      ],
      [
        "Ġch",
        "all"
      ],
      [
        "Ġch",
        "andra"
      ],
      [
        "igh",
        "ter"
      ],
      [
        "ul",
        "ation"
      ],
      [
        "if",
        "ied"
      ],
      [
        "Ġal",
        "ong"
      ],
      [
        "ust",
        "er"
      ],
      [
        "ct",
        "ion"
      ],
      [
        "Ġcon",
        "d"
      ],
      [
        "Ġde",
        "ath"
      ],
      [
        "ud",
        "e"
      ],
      [
        "Ġun",
        "us"
      ],
      [
        "ell",
        "ing"
      ],
      [
        "ell",
        "ite"
      ],
      [
        "ug",
        "e"
      ],
      [
        "Ġwe",
        "ap"
      ],
      [
        "Ġwe",
[...]
